/**
  ******************************************************************************
  * @file    network_data_params.c
  * @author  AST Embedded Analytics Research Platform
  * @date    2025-03-09T15:49:05-0400
  * @brief   AI Tool Automatic Code Generator for Embedded NN computing
  ******************************************************************************
  * Copyright (c) 2025 STMicroelectronics.
  * All rights reserved.
  *
  * This software is licensed under terms that can be found in the LICENSE file
  * in the root directory of this software component.
  * If no LICENSE file comes with this software, it is provided AS-IS.
  ******************************************************************************
  */

#include "network_data_params.h"


/**  Activations Section  ****************************************************/
ai_handle g_network_activations_table[1 + 2] = {
  AI_HANDLE_PTR(AI_MAGIC_MARKER),
  AI_HANDLE_PTR(NULL),
  AI_HANDLE_PTR(AI_MAGIC_MARKER),
};




/**  Weights Section  ********************************************************/
AI_ALIGNED(32)
const ai_u64 s_network_weights_array_u64[4995] = {
  0xbdcc06b03cc28f96U, 0x3e83f56b3e838665U, 0xbdfbe6563e9a3babU, 0xbd69b0c7bdb4afe2U,
  0x3e5030f63e2494d9U, 0x3c4c907e3e064546U, 0x3d12c44e3e5770f9U, 0x3e4968043dd748afU,
  0xbd4be3093e78cd92U, 0x3de46abe3e86a118U, 0x3cd504d03df3afdbU, 0x3e90979f3dc1393aU,
  0xbe5ef1aa3d0b1e85U, 0xbde8611bbd0af57cU, 0xbe39ddbabecf932bU, 0xbecbc635be921331U,
  0x3cdd06b23ccd4796U, 0xbe7bccc5bd2231b2U, 0xbeb058c1bc817e4eU, 0xbd6d6a75be64eff1U,
  0xbe03216ebeaa4df3U, 0xbe5847433e1d0031U, 0x3db617f63e1c8115U, 0xbe1a4f45beb0c278U,
  0xbe4577b0be3917f5U, 0x3df24a023c15b40bU, 0xbe48760dbdafce9cU, 0xbcbdf11cbe4d3edcU,
  0xbe94ee26bdf70038U, 0xbe10f6cc3b7c5981U, 0xbe3b2bdcbd83091aU, 0x3e39b2be3e8f9264U,
  0x3e75d9b23dd3de8eU, 0xbd915b7dbe16e733U, 0x3ecdb7893d025630U, 0xbe93869cbe171057U,
  0x3ef601bcbea11513U, 0x3e5498f4be8ead00U, 0xbdbe735f3e61c8a9U, 0xbd25434e3dff85aeU,
  0x3eb9812ebe425411U, 0x3c6f53cbbdd4ec51U, 0x3e72d91c3eaeb60cU, 0x3e199dca3e4b3d9dU,
  0x3e8713dcbe95962bU, 0xbd79999bbc91d121U, 0xbe8bd14c3e2a6060U, 0x3e9d8812bd1261b6U,
  0xbdccdc813e088f83U, 0xbe2ac1653e7cec6bU, 0x3e5842853e5838b7U, 0x3cb8e79abdcdd883U,
  0x3d7d673fbdccaf91U, 0xbe375c4abe2e7d53U, 0x3d0483793e2eaaadU, 0x3e3322503e3b6067U,
  0x3daba4c8bdbcf5f8U, 0x3c59c61f3e135962U, 0xbdeb5564bdd8c8bbU, 0xbdd5c6e1beb3f96bU,
  0xbe201e88be3d14adU, 0xbda219623dc2ad83U, 0xbe20f7003e8d8eb9U, 0x3e98b9a63d93de6cU,
  0xbe284d0cbe45d93cU, 0xbd1e53c53a47af4bU, 0x3dfa7eb73e8983cdU, 0x3e3daf503e2114bbU,
  0x3db721e83e9de327U, 0xbc2710803dcf3887U, 0x3e40ad523dfdcbcaU, 0x3e63ac98be107f00U,
  0x3dec88863e594c1fU, 0x3df008b83c81fce2U, 0x3de25c743e0893eeU, 0xbe271fcf3d7c073bU,
  0xbe34a000bdaf6d75U, 0xbdc235a93d8c3b43U, 0xbeb234e5bea56c0eU, 0xbdf8b196be946e36U,
  0xbdd1d97cbc628e4dU, 0xbd14c0443d80be7fU, 0x3e3466b13e0d8f63U, 0x3d4553513dee3e28U,
  0x3c35f2cbbe06cdb9U, 0x3e2eabfa3e034222U, 0xbce727b7be2bc6b7U, 0x3c873c19be8afc3dU,
  0x3e83647bbeb233d2U, 0xbeb788b13d9cf08dU, 0xbe8359e2bea1bb01U, 0x3e633a6ebd69c2b9U,
  0xbead8fc6bdb351dbU, 0xbd038082be9f0040U, 0x3e1814dabea522bbU, 0xbec8d0bcbe5e41b7U,
  0xbe2562d6bddcd0b6U, 0xbe8cca7e3e003561U, 0xbdee2aa1be5185e8U, 0x3e54a0cbbde89ae8U,
  0xbed94b563d124062U, 0x3e60e685be24e5a0U, 0xbe217259bbc20b83U, 0x3e9cc7b43e1ee2f1U,
  0xbd952ee43e1ef6e8U, 0xbd0490583e9e503fU, 0xbd619be33e855182U, 0x3eaa528bbe023bb4U,
  0xbcb53756bd3c67ceU, 0x3dceb398bc4ef622U, 0x3d2e68ca3d3d58f6U, 0xbce0317bbe2c1c85U,
  0xbc9c20c8be8e2070U, 0xbed0a7a63cd7208eU, 0x3e6e87cebdc00dd8U, 0x3e95a630bbb0cbf1U,
  0x3cb37c5d3ef3d24cU, 0xbcc1e2463d9083d4U, 0x3e2b9ad53e274971U, 0x3e98e3733dbb012fU,
  0x3de3021a3c76d241U, 0xbd3c11f53dbdcc7aU, 0xbdb9f9883edf132fU, 0xbe077c703c2d0a12U,
  0x3d4205ef3e3e180bU, 0x3dabc3e1bea068d5U, 0xbe944548bd497509U, 0x3de2050d3e254387U,
  0x3e9a55843d8ce818U, 0x3ddd98523e93fffcU, 0xbdb10ea63e1b4502U, 0x3e832d7e3e15565fU,
  0x3e466c64be137da0U, 0x3ac4cd7e3cd38636U, 0xbc68a24f3e5ef41bU, 0x3e53d78fbe634302U,
  0xbc871925be402029U, 0xbdc70d44bea16ac4U, 0x3ca8ba47bdf4916bU, 0xbecb9d133d71e31eU,
  0xbe3105253e69e7c1U, 0xbec7a5d6bd80d034U, 0x3d4164acbe97a81cU, 0xbdbcb0d7bdfd1b29U,
  0xbe31da2abcbb13a2U, 0x3ec0d1243e20bab0U, 0xbe2d8e763e967cbbU, 0x3e304189bc9d9deeU,
  0x3e3cf8a83e066057U, 0xbcd765ac3d6206deU, 0x3e7a090b3dc750faU, 0xbe721329bdb21be2U,
  0xbe28518bbdaa87bbU, 0xbe48118f3d38224eU, 0xbed93530be4d1ac7U, 0x3d8b067f3eba310fU,
  0x3e5e75f4bdc68ca4U, 0xbda0b7c6bcc5cdf5U, 0xbd9f4f763c9b3dc2U, 0x3eb22a9bbe8eff7eU,
  0x3dca3f523d9d35a0U, 0xbe6a7bec3e5f36a1U, 0xbdf9b59a3c4d8d78U, 0x3d382a69be25ad9cU,
  0xbe0903bbbe64ac58U, 0xbc0ea1283d78b016U, 0xbe2aa340bda7d64dU, 0xbe9363a83dd828c5U,
  0x3e006ab33cdb77c7U, 0x3e81ecce3cafefbeU, 0xbe1099f03e221b2fU, 0xbe0f29bb3e41afe2U,
  0x3e2e90823e4465b7U, 0xbd8dd102be32540eU, 0x3e28c7d0be6b774cU, 0xbc2af44bbe6f445bU,
  0xbe0650df3da46f7eU, 0xbebc121f3da945a6U, 0xbe4995f93e37400eU, 0x3e0fc9cb3e29d455U,
  0x3cb88c663d1312faU, 0x3d067d07bcb65a74U, 0xbe1342fabde78f4dU, 0xbdc5a8873e039313U,
  0x3d0927843e81bcceU, 0xbd9c4339beabc7ceU, 0x3e7f547fbe9c6cb8U, 0xbd35a109be1987d6U,
  0xbba291573ea9de2eU, 0x3d7ae46c3e8f4ef2U, 0x3e15ed703d2effa2U, 0x3e350c663ed14ee6U,
  0xbdabcc00be4ae33aU, 0xbd7808fdbdd9e7c4U, 0xbe4473ee3e1a15beU, 0x3e4ae1483e69aec4U,
  0xbe44fefa3e8196d1U, 0x3eac81c43e172281U, 0xbe58950e3e6432b1U, 0xbd9305f03d97182bU,
  0x3d4139dbbeb107caU, 0xbeed4526be84d469U, 0x3eb44deebe20d934U, 0xbe9141be3d8cc1d4U,
  0x3dbc55533e7920fbU, 0x3d85a49fbe135ffaU, 0x3c5c5e5dbea31cf3U, 0xbe9b806c3dbe6434U,
  0x3df719e23d59123aU, 0x3e0804d6bb3f6f88U, 0x3bc6ea7e3e8ca4a4U, 0x3e1d3102bd38012dU,
  0x3eb185123d14e416U, 0x3ddf35993dfb795cU, 0xbe3c5f0a3e062672U, 0x3d62a08abb151391U,
  0xbdd338b6bdabfd9aU, 0x3c4528893e060ef9U, 0xbe27a190bc5f2630U, 0x3e63e29c3e009438U,
  0xbe8fd41c3e9f9208U, 0x3e9e66863d21d5fcU, 0x3e829731be1bf502U, 0x3e6f5c60bd2f8709U,
  0xbce5bb783de2576dU, 0xbd0478ce3d8a0621U, 0x3e346c123e2e06b2U, 0xbe2809063e6dfb05U,
  0xbe68a0183e0ebbf3U, 0xbe673f69bdbc5d32U, 0x3e83d1c13df9aad0U, 0xbe563cfe3e5f8c55U,
  0xbe9130043e194371U, 0x3df223e5becc0fd8U, 0x3e22ba35bd86dd2fU, 0x3a90f800bd0017c0U,
  0x3de1c4643b781f01U, 0xbe20f69e3e883fb0U, 0xbbdd5a5d3d62e164U, 0x3e6b6e0ebee45c6aU,
  0xbe04087bbe84da07U, 0xbed421283c12dbf3U, 0x3ce69aa9bcd1e2b3U, 0xbed065b73e3e805dU,
  0x3d9203b73e30b2e4U, 0x3ec7da09be0dc00aU, 0x3e033456be16e7d8U, 0xbd21e9efbe862981U,
  0xbe7b78f4bcd60ff2U, 0x3e5ba444be2c8497U, 0xbb60b1583db837f1U, 0x3d8a31d3be09e622U,
  0x3e23922bbe8bc20aU, 0xbe0f82c4bcebd67dU, 0xbe5da8ca3e392090U, 0xbee541693d89357cU,
  0xbe3844e5be782f2bU, 0xbe0a16543e0ec483U, 0xbdeca7353e767da7U, 0x3e308d83bdce01b4U,
  0x3e10784dbdef1abbU, 0x3cb562793d5322d5U, 0x3edca8bebe7f9205U, 0xbd23965ebdf6fff2U,
  0x3d0c219bbe6c9772U, 0xbe35439cbea1fcf5U, 0x3d3e9e05bebb1144U, 0x3dc29b8ebe1e79ecU,
  0x3e46dd92bd72045fU, 0x3e1d00fe3e736e3dU, 0xbe8466513dbfac6cU, 0xbe1c65593d208329U,
  0x3d4c06e0beb3efa6U, 0x3e1ff6bc3e56f654U, 0x3ecf57bebd54a3b7U, 0x3d850b69bd9f3018U,
  0x3c49155dbe556c70U, 0xbebae2c9bde84681U, 0xbdce89fd3d971e91U, 0x3e43cdcb3d299d08U,
  0x3e08f423be481198U, 0xbe9cb314be47c0a0U, 0xbea452fbbc0d240dU, 0x3e1d8c583d220dffU,
  0xbddd2acd3e1d4fe0U, 0x3e869bb13c988866U, 0xbd353790bdcb42b3U, 0x3e41bc493ec93f0cU,
  0x3d8aa6a2bc3bd96bU, 0xbd7450e13d8035dfU, 0x3da564013dd7278fU, 0xbe2953d43d6f5839U,
  0x3e66784cbe2ccd38U, 0x3dcaf7433e1e05a9U, 0xbd99eb22be247cf7U, 0xbedce5043e2ab610U,
  0xbe238f6bbd7b7263U, 0xbe0c84b3be711decU, 0xbe7e70d5bec8d815U, 0xbdf709f93d5f40c9U,
  0x3e86f6cc3e399491U, 0xbe95af03bbc3f868U, 0xbdb070b9bdbae142U, 0xbf45421bbe70cf63U,
  0xbf62bc043e178508U, 0xbe2c9debbd4376f8U, 0xbe00ae1d3d8d530bU, 0x3e335444bdf1a9daU,
  0xbd9b2581bedea13dU, 0x3eaa012fbdf72ee9U, 0xbe97674cbda76772U, 0x3c59c2bb3c9414b6U,
  0xbe74ecf13ec49077U, 0xbeb49f233ea58041U, 0x3e5210afbe057bc5U, 0xbcca9b8c3e449debU,
  0x3cbf74dd3c9591c6U, 0x3cb9e89fbe345329U, 0xbee0f9a13e1652dcU, 0x3e371c60bde5f390U,
  0xbdfc72823c92c054U, 0x3e40cff3be9396c1U, 0x3e58ef52bc05d4d8U, 0xbca8ed0f3e93bd5cU,
  0x3e8d1298bd2890e7U, 0x3d391897bdd86b10U, 0xbe76e697be0cb5e8U, 0x3dcf2118beaf5c56U,
  0x3e85c7abbec744e4U, 0xbedf70603ec4233eU, 0x3db5a9073e34d57aU, 0xbe9b906cbe30ce8fU,
  0x3d438cc63d09356cU, 0x3e25a6273c76554aU, 0xbe0b764f3e79c32aU, 0x3dfaf3af3e25188bU,
  0x3e3b61d2be5c38fcU, 0xbe4fc652be75ed97U, 0xbe07636e3e826b12U, 0xbe1b3d7a3d6eb04aU,
  0xbe38f7d03e2502b5U, 0x3e7f847bbd9ab9e9U, 0xbbcfd0cf3dbedd4cU, 0x3ea4c94f3ed19821U,
  0x3e8156aebea777d5U, 0x3e148e053e8a752dU, 0x3e9b7d1cbd982a4cU, 0xbdb885cdbb6e49e8U,
  0x3e847a6fbe9c5a30U, 0xbe064a5f3cbb3ca9U, 0xbe85393dbdadfaa3U, 0x3cffe295bdabf5aeU,
  0xbcec91e0bd5ec9e0U, 0x3e356ed3be282364U, 0xbe0d01d4bdc1b556U, 0xbd0c00483d6f5ac9U,
  0xbcf670313e3d0d00U, 0xbdaa8900bdac2a36U, 0xbd912b153e0be802U, 0xbd72ab88bea86035U,
  0x3e435182be26ca2dU, 0x3dc46af2be1d3fd1U, 0xbdd39adabd60dc13U, 0xbe3e42563ea3776bU,
  0xbd71a5a73ecec8e8U, 0x3ebfb2e5bdca79f2U, 0x3e32f92bbe61c216U, 0x3d3ba8ecbe8505b7U,
  0xbe9f673fbd5ae0beU, 0xbe803bc63d8fe79dU, 0x3e1cf4bb3d9b87d7U, 0x3e53e8283c188f17U,
  0xbe1a380c3e38bfadU, 0x3e8efcf0bdc855f4U, 0xbcbefebd3e5489c3U, 0xbeda68b7bd8de6b6U,
  0x3e9453e93db8a769U, 0x3d945b933db2558cU, 0x3e069dd8bd89dcceU, 0x3da2dc99bde31693U,
  0xbe232a513ea158edU, 0x3e659283bc3c1ed4U, 0xbe6b409ebe03ef3dU, 0x3ddaea593d5c214dU,
  0x3ec74811bd9a7641U, 0xbe5a09b93d174c91U, 0xbe297131bea95dd7U, 0xbf2d4835bd9eafc8U,
  0xbe935c403e8c1ec4U, 0x3e6958533e0efbf5U, 0x3d3ac5a03d72409cU, 0xbe87d7823e055284U,
  0x3e7a2be73e734b81U, 0xbaf2df39be923b7cU, 0x3cbafe13be86882aU, 0xbe43ece13dc0b519U,
  0x3e1da6c4be6825aaU, 0x3e4eccd4bc3469a8U, 0xbe1b437139f46ecfU, 0xbd9eaa373db3e0d5U,
  0x3da085b23e8af7c1U, 0x3c8a8d0abe076ff7U, 0x3d2184ba3e3b3cccU, 0x3c33de2dbd06c12bU,
  0x3e3e7dd6be6d89f3U, 0x3ced75773d85e563U, 0xbd2951023e24e949U, 0x3e2c5a063d57f314U,
  0x3e61762abda75683U, 0xbe498c5c3e9073eeU, 0xbbead7e43d411cf0U, 0xbdf876f03eb0dd75U,
  0x3e85c5383e5f27b3U, 0x3e9a31003eb45ac2U, 0x3c7e05193e4ac197U, 0x3de3286f3dc115f9U,
  0x3d929df83ecb8fe4U, 0xbc1e5e8dbdba8856U, 0xbea09890bceb2bf6U, 0x3d987068beb427edU,
  0x3dec54913e512c10U, 0xbdda00333de87c82U, 0x3e4c13e3bc46d4cbU, 0x3c5a524cbd21ccaaU,
  0xbdad49e6be3d6f3dU, 0x3d4e7d233d8da915U, 0x3e93d134be3c6794U, 0x3ddc3476bc4a427fU,
  0xbca134a1bd00eac8U, 0xbdf079d4bd666d7cU, 0x3f106c70be7a6269U, 0xbe0cf9d3bba0cc1aU,
  0x3d191597be8deaa2U, 0xbddfe46abdd9889eU, 0xbdaca1373de6bd75U, 0xbd092f5ebf000b2cU,
  0xbdb750babed400d8U, 0xbe2b1e083d0d6e5eU, 0xbee8c55a3deb3202U, 0xbc69d41ebdf77029U,
  0xbd55f88ebe52c97fU, 0xbe0506f7be225dbbU, 0x3e3e0e80beb63f14U, 0xbec44f26bd06a496U,
  0xbe9fb6a03a7c6a48U, 0xbe92ffd7be140c14U, 0xbe16bd2cbe96744dU, 0x3d024b50bd756d23U,
  0xbc38ba983e418f95U, 0x3dbbedb03d12834dU, 0x3ec0afcc3e50f0d5U, 0xbe73d3af3e5de0ccU,
  0x3e92f812be95d373U, 0x3dbae8133e2099b5U, 0xbeac9e04bdc5b06dU, 0xbe7441213e35a600U,
  0x3e34783e3c88f937U, 0xbde9b13fbe979784U, 0x3d291af1beea22a5U, 0xbdba4826becff550U,
  0x3e5fb40fbee33fa0U, 0xbeaaaebe3e304c00U, 0xbeba30b9bdfbefaeU, 0x3e20ea12bdd99625U,
  0x3e7bbcb6bdf7ca67U, 0xbe20468a3ddc56d9U, 0x3d976b7f3eac8381U, 0x3db38147be41badcU,
  0xbee2adf53d4b56c0U, 0x3e2bbf2dbda56cb7U, 0xbd41aacebeb9bc1fU, 0xbe6d0febbea071d6U,
  0x3eddae2a3c8af7e6U, 0xbe3d2829becbb6d8U, 0xbc699e5abe32e8faU, 0xbdca0223be52e015U,
  0x3da392583d63841dU, 0xbd5c817b3e8b1f4cU, 0xbe868be13e78fc9fU, 0x3e1679593dfccca6U,
  0xbe14542a3e872eb8U, 0x3e321ace3e857a72U, 0x3e9720b2bcd570beU, 0xbd0b389b3d4a9b5aU,
  0xbe5304cb3e81a552U, 0x3b1f2ab73e8ed432U, 0xbe5077c23d9009baU, 0xbe484c133dd329e9U,
  0xbde6b84cbd5af9ccU, 0xbf0930a03cbc8704U, 0xbebdd4aabe1ce7c4U, 0xbd1a5b68be172c0eU,
  0xbcab8effbe5f2a07U, 0xbe86bf78be222bd5U, 0xbea79ee6bba3145cU, 0x3d37bdb6bea61864U,
  0x3e47dca7be401376U, 0xbe81f724bcf186fdU, 0x3d9c8963be2de7f9U, 0x3e637c0ebe1f8ee4U,
  0x3de2ab2fb77c0d8aU, 0xbc8306863deabec5U, 0xbdae99193df168c2U, 0xbd294f873e09e4c6U,
  0x3d1d5979bcbabe33U, 0xbd24d2b13d545721U, 0x3db0b3f63d27154bU, 0xbe2f3139bed51710U,
  0x3d06a87cbe5c6b02U, 0xbed168f33d82cd45U, 0xbdaff634be2437bbU, 0x3e9f6221bdca8d28U,
  0x3d5b25a8beacc004U, 0xbc1118473de7b4b3U, 0x3e5ef3e3be477126U, 0xbe69beb9be1e1d16U,
  0x3e3ec940bd5f7621U, 0xbe98dce9be913d81U, 0xbe98ea4cbe1fc1ebU, 0x3cfc1b0bbcd49534U,
  0x3e9704753e689e0aU, 0x3e0e3d0c3e1f31d2U, 0xbe6067643cd164b5U, 0x3e5b96fdbd729504U,
  0x3dba0e9ebe8f8be9U, 0xbe526636be0b179aU, 0xbe6b42e4bdf96665U, 0x3d7d4af53d95b9fdU,
  0xbf2c66ee3e45de06U, 0xbeaac378bc2a07fcU, 0xbdb97fb4be55ee82U, 0x3e528d8fbe404103U,
  0x3dc57e97bddf8d4dU, 0x3d5b5b73be4a0a1cU, 0x3e3133573c9cfde4U, 0x3e630f163da16044U,
  0xbdde55d5be3b054bU, 0xbdfcaaed3d8de067U, 0x3e2ee5fa3dc3d39cU, 0x3d869c34be34d612U,
  0x3e67f83bbde09bb3U, 0x3de1b0083dd4d1c3U, 0xbdbac0ef3cb291c9U, 0x3dbf29c7bdfbd92cU,
  0x3eb458cfbde31617U, 0xbe4c53b03eef376bU, 0x3f0024733e03832bU, 0x3f0524b5be14dfe9U,
  0x3e2e7200be839699U, 0xbca2a15dbda6dadcU, 0x3d85e7243e05dcc5U, 0x3e7e8adabe007abcU,
  0x3e8c55613e1557e7U, 0xbe4886c2bc600329U, 0x3dd9a4ffbe14f2b5U, 0xbe2b36ea3d9fb38cU,
  0x3eb0585abe51fdc8U, 0xbce6c6673e5a3cb5U, 0x3cf19eab3d163ae6U, 0x3df5d66a3d81eeddU,
  0x3caae629bc9fe907U, 0x3e08d85e3d786244U, 0x3dc282643e71b01bU, 0x3d9223bcbc523fd6U,
  0xbe143aae3e49c8ecU, 0x3eb476b63db0f051U, 0x3cd8a48cbe3ea30bU, 0xbe8327c0bd11c2deU,
  0x3c914e3ebe13ccdaU, 0xbe77ca5dbddb7ac6U, 0x3d46c2853d4a0f0cU, 0x3df4a2033e4c5414U,
  0x3e550186bd46b697U, 0x3e123b343daa5f9bU, 0xbe8ac71cbd3bcc47U, 0x3d2c21403e98ca5bU,
  0xbe962722bc5b8aadU, 0x3ddce1983d2d7df3U, 0xbd89e789bd247334U, 0xbe6a2ca2bd145ba5U,
  0x3e511ac93e299c10U, 0xbd373b8fbcc62150U, 0x3d1125fbbd0257a3U, 0xbd4a0932be1032daU,
  0x3e04586dbd164cc6U, 0x3d7327c23e82e6feU, 0x3dc223503ed6b5eeU, 0x3e41a3c53cbaedc6U,
  0x3ec718f1be965d26U, 0x3d444d01be8c41cfU, 0xbdfab671be8d60bfU, 0x3c97f108be7b9f97U,
  0x3e1c4a9b3d3fde61U, 0xbd8efc67bdaa9e03U, 0xbed483e8be5dd29bU, 0x3e255a543b702e02U,
  0xbdd78f133e0c019aU, 0xbe53e27cbdd32d47U, 0xbee787613e207c0fU, 0x3d2dc81b3daa3e05U,
  0x3dcd82d7be45a2e2U, 0x3da08163be4730c1U, 0xbc6de8903db99306U, 0x3ed2147a3e72b9daU,
  0xbe9915063e1bc870U, 0x3e07201bbe93306bU, 0xbd37b87e3d679648U, 0x3e5c48403d0edb4bU,
  0xbda843c9be93be59U, 0xbd60c5823e8afefeU, 0xbe0a24e73ddcccaaU, 0x3e492a743cec1a97U,
  0x3e3056e2bd96b56cU, 0xbe7696b43e3e69d2U, 0x3dd88fe63e5bc5e8U, 0x3e82727bbda2fba3U,
  0x3e7d8ffebe4a17c8U, 0x3dd1a2063e7866b5U, 0x3dbd08e03cb1a433U, 0xbe9676f53d4c32dcU,
  0x3c9dcdc73e80d66fU, 0xbd6adbaabe556c8dU, 0xbcc3c0c7be1b1aceU, 0xbcbe831dbd7008b6U,
  0x3e4ca5fd3e33d576U, 0x3e3fb947bd1e48e3U, 0xbdd4c9dbbe9dd4ecU, 0xbe4f5d573e1f489dU,
  0xbdf65ff13d300ef2U, 0x3e91a8213d9de524U, 0xbd22316abe2e1f1bU, 0x3e7e1f4dbbd80119U,
  0x3dcb03ccbe633718U, 0xbe8c2468be905322U, 0xbe652829beb0357fU, 0xbee3123cbc8c6e72U,
  0xbeb38988bd9380baU, 0xbd96eb4abd582f40U, 0xbda9f4fa3e81a48bU, 0x3ea99a63be84bd56U,
  0xbf1811483cfd23f1U, 0xbe414c7e3e2097e0U, 0xbd5fb1c43e788668U, 0x3d9399053e1e6edaU,
  0x3e1eb36d3e14c103U, 0x3e0a5cd4be6b0eddU, 0x3e726d51bdb54bebU, 0xbe94fba7be97fce6U,
  0xbaa1b1ffbcfca4cfU, 0xbd8994523e873727U, 0x3e7fb5e0be08e133U, 0x3d02415d3d95a563U,
  0xbe77104ebe433879U, 0x3d372a303e4f92ffU, 0x3e913405bebff686U, 0xbe5ea58bbe7ae05bU,
  0xbe17fda7beae0373U, 0x3e6265de3de332b8U, 0x3dbc7c87bd9021b0U, 0x3e56f0a9be3e5ceaU,
  0xbd6398febe1a2797U, 0xbd48e8703e021585U, 0xbe636d6ebce73e8aU, 0x3dd71bb5bec60e46U,
  0xbd855461bdeb3cebU, 0xbe9831c53cd7f52aU, 0xbe9b72af3c84cd04U, 0xbd0e93dd3ea57b11U,
  0x3ead4e463e56f207U, 0x3d79be033d1a9ae1U, 0xbac53c7bbcbbbdb9U, 0x3ea8ba46be33cd13U,
  0x3edbbf8d3e255279U, 0x3c8be151be10a14aU, 0x3d15561e3e00ce40U, 0xbe486ea6be3f79dfU,
  0xbeae372b3d8db5dcU, 0xbe83eb3bbe7d8078U, 0x3ec1268f3bc126deU, 0xbe19ed4cbe987726U,
  0xbe4284b3be3171cbU, 0x3c9ce5a73dd12115U, 0xbe87c7493cec7917U, 0x3e57d8b33d87225eU,
  0x3cad9723bda860baU, 0x3e32a17cbe9b705eU, 0xbe92cfc9bc7ff149U, 0xbd778603befe03a0U,
  0x3e699e1ebe9bc7ffU, 0xbeb7b184be60e4a0U, 0xbd6a45453de2d1feU, 0x3ecf0465be77e385U,
  0x3da12ea93e472052U, 0x3f16268cbdcc5eb4U, 0x3ced8b763dd4e146U, 0xbdcea5c03dff0d78U,
  0xbf259d103e1ebf8fU, 0x3d9142b1be0ed0e5U, 0x3da1d96cbe3416edU, 0x3e67164f3e7018ccU,
  0x3dd939083e7ac080U, 0x3dd5f929bddc6c16U, 0x3ea9d130be411e83U, 0xbd567a0c3c8e1766U,
  0xbd3858b8be0761bcU, 0xbe525662be5abcb3U, 0xbdd03bf6be12acd3U, 0xbe399554be03e127U,
  0x3db9df613ea83b06U, 0xbe2d2ce2bc32336eU, 0x3ea8835d3ba1d45cU, 0x3da75d7a3e07c9e5U,
  0x3d85292a3e11ef67U, 0xbca10fc8bd0dc4dbU, 0x3e57530d3c296065U, 0x3e70d0c8bda54392U,
  0x3de870123eb7b103U, 0x3e410775be102ce2U, 0x3eb85e35bba63dd1U, 0xbde5c889bcdb1bbcU,
  0x3e1374083e3583f1U, 0x3e62b0033e454081U, 0xbdc0e59dbc92f845U, 0xbe4b4bb1be3127d7U,
  0x3e84664dbdd5156bU, 0x3df21dffbe92c328U, 0x3e917dc03e3ca2a7U, 0xbea3facbbe35252bU,
  0xbd6c13bcbd566e0fU, 0x3d78d09ebda81e5cU, 0xbebc0af83e38f259U, 0x3d256a85beb68a9eU,
  0xbd332425bdea8ae9U, 0x3e7b3b8a3dbb2d4bU, 0xbe12bd40bd83e493U, 0x3e3a41583e358ec4U,
  0xbe7ac8333e5493d6U, 0x3bebb14ebed45971U, 0xbea700ffbe48cc58U, 0x3df5d9adbe00d727U,
  0x3d87d12f3da31da9U, 0xbe8b0d363e33b7e7U, 0xbe8f7f113dc01b16U, 0x3d976c753e89b304U,
  0x3de812bfbe4bb415U, 0x3e3b92c7be799b91U, 0xbe8f0bd43e028571U, 0x3ec2a33d3e46da35U,
  0xbda5d8c23e50159aU, 0x3e1682b53cefa26fU, 0x3da733b23e1dbb11U, 0xbd3c16683e87c54dU,
  0x3e5a3c48bdde92b3U, 0xbd98c6edbcfc5366U, 0x3eef23313e2817c3U, 0xbda8a6c4be006661U,
  0xbd3d2bb03e5d9810U, 0x3d1960793e0da9d3U, 0x3e460c62bd890d0fU, 0x3e09abed3ca0e0b9U,
  0xbf0eb0e83d13a77cU, 0xbdaf7f8f3e23aa7eU, 0xbae37c353e77d427U, 0xbd1a10e73e7e6058U,
  0x3e7ea052bd15538dU, 0x3e13566fbde9840aU, 0xbbf491843e16a500U, 0xbe17f9193d544838U,
  0x3e7dfb1abe7dd890U, 0x3e44ee8ebe292c11U, 0xbde9ff083d3b643aU, 0x3c07045a3b5fe143U,
  0xbdba62b33e07a098U, 0xbd16fb1f3e4dc51cU, 0x3d535f24be5d8926U, 0xbe1765bb3ded5269U,
  0x3e9bd45d3e841c76U, 0xbe86ac8abe9164ecU, 0x3e0cac1dbde5a727U, 0x3e0b23cb3e1d27e7U,
  0xbe5d025cbe206143U, 0xbe9f8e4f3e3e4be0U, 0xbd337dcb3e7d45efU, 0xbed326a23e430212U,
  0x3dac682d3dba8900U, 0xbe69e9863e110e1aU, 0x3e7824db3e885f81U, 0xbea89dfbbdca7989U,
  0x3c961df9be9afbc5U, 0xbd9424b23e2fea7fU, 0xbe00a732bd9416d1U, 0xbcd9bddebc0b1971U,
  0xbc7cf1653e92bce6U, 0x3ddeb2f0bc444fc9U, 0xbc594fd53de93afeU, 0x3e9d7e8cbd9bcc14U,
  0xbedd2402bea64258U, 0x3e1de04dbacdde9dU, 0xbeb51da93d03f121U, 0x3ebda93cbe6169a1U,
  0xbd875de7be572642U, 0x3dd45a0ebebb31a9U, 0x3d8ded523def21f1U, 0x3dc8e9e2be48183cU,
  0xbca873dfbe26fe6bU, 0x3e02ea253e7207d1U, 0x3cc3188bbaec7fc2U, 0x3def10e6bc498947U,
  0x3dd010063df6a103U, 0x3e4732773bfd82c0U, 0xbe46c255be873c7dU, 0x3e7fd9983d98e42bU,
  0x3da00515bdaff4dcU, 0x3ca27570be762664U, 0xbc00f00cbe5b673fU, 0xbdff25ba3e6931b1U,
  0x3e95e2063e560856U, 0x3d2fdff23daf58adU, 0xbea95b1dbd9a23f1U, 0x3e8896ad3ea28d2fU,
  0x3d89bdfcbdc6359eU, 0xbd0d959d3d2ca483U, 0xbdc32c84be49e095U, 0x3e67ba9ebe820e30U,
  0x3dc2e1603e0e7a3eU, 0xbd917699be110b45U, 0xbcc6a92b3d619696U, 0x3ea39996beda152bU,
  0xbe664bc63db24bebU, 0x3e579d31be8352daU, 0x3d584dd43ca4f353U, 0xbd89ad083eb4cfe0U,
  0x3e1015bd3e1d1e70U, 0x3d1c987e3e0aa9d1U, 0x3cd2573e3e11e7ccU, 0xbd824d00bd052a3bU,
  0x3df52cc1bc8cb641U, 0xbd984d9f3d43c59dU, 0x3bb6616ebc6f2188U, 0xbdab87a23e122bdfU,
  0xbd69c9e6bd28f6b8U, 0xbe107db33d468419U, 0x3ce754333b9e19f9U, 0xbc80f344becf056fU,
  0x3e23f1d73d006623U, 0x3e1705d0be8978b5U, 0xbdd33f223c94153aU, 0x3c96e5dabe207eedU,
  0x3d612fe03d4683fdU, 0x3d8dc3c93d5d5814U, 0xbe3d42c13d88a6bbU, 0x3dee11f9beb18616U,
  0xbe0d59dd3b95af8eU, 0x3c94bce1be8f59d4U, 0x3d159930be956935U, 0xbd1c0bc63d96eb64U,
  0xbe4f77403ca278d8U, 0x3dd5b1a83dbcf33aU, 0xbe616f59bd3a82e1U, 0xbd981ccebe133aa0U,
  0x3e260ff5bd0087d4U, 0xbebee1e2bdcaeb5fU, 0x3e3364073cb2f2fbU, 0xbe4db901bd8b99f0U,
  0xbdebbfbc37a86822U, 0x3df68c673eba4334U, 0xbdc4fd3fbe8aca4dU, 0x3d62dc683d8a77daU,
  0xbdae7c0ebe367452U, 0x3de88506be23a019U, 0xbdd8814ebd13f3a4U, 0x3d4894873cd75a26U,
  0x3e24eb4d3dba1d11U, 0x3d93deeebe94b054U, 0xbd6f21573d4078e4U, 0x3d3197c6bd994e3dU,
  0x3dc8c2c4bec2e8e6U, 0x3d8b97443e4a8712U, 0xbd94d2683e0d4c1bU, 0xbbf973cf3e326fb7U,
  0x3def781ebd0afdd6U, 0x3e4d8ce63e5bff30U, 0x3d9336c73de15c57U, 0xbd2c62983ddb0158U,
  0xbd4381dbbdcf5d9aU, 0x3de96237be7f2627U, 0xbd94d57e3d4cc5eeU, 0xbc8bd9d23c6ea392U,
  0xbd858c3a3d9fa8ecU, 0x3df24dc4bcfb601aU, 0xbc8bdd58bcd98989U, 0x3c4f29e5bd8c03eaU,
  0xbdcb2943bc34f9a3U, 0xba11fc733df88cc3U, 0xbce512c7be0d9faaU, 0xbe2d42a2bdd131b6U,
  0xbda30dec3e9c52a7U, 0xbd3f50fdbe7854c3U, 0xbded9aa3be144b84U, 0x3defe8b6bdf30f43U,
  0xbe15f17b3df06685U, 0x3dd90df8bd8b6f57U, 0x3dc36e11bd54ee1dU, 0x3e8a6c723e18d3d9U,
  0xbd31980ebcd30db2U, 0x3e47f274be2f5280U, 0xbdd33b44bf04f561U, 0x3daaa3723ce23c16U,
  0xbe55dc583dd38b5dU, 0xbe6ad9e63de185bfU, 0xbcf008003ccf2caeU, 0x3eda4bd73c9dd0bbU,
  0xbceeccc5bceae94cU, 0x3d28f9fabe43852bU, 0x3e66ec7ebe77d190U, 0xbea4f54dbd48af68U,
  0x3da56f463c40618fU, 0xbdff5e933e26719eU, 0x3d835174bd4e0565U, 0xbdcda090be0d63caU,
  0xbdfd5cb2bd61d9b7U, 0x3e2b2084bd7ae63eU, 0x3dbcafc23d49d241U, 0x3e03b9003e825aa4U,
  0x3e604c87be278d09U, 0xba2b124abe103954U, 0x3e95f66dbe0962c9U, 0xbc9f93213e51160bU,
  0xbe166e6a3ebda1b2U, 0x3cf6bfe33d3df3b3U, 0x3e9f941b3ba859e4U, 0xbea1d525be087ca6U,
  0x3d015bf13d29aa4bU, 0xbe30356a3de3adbfU, 0x3e5a18d23e3288e9U, 0xbe5e40f0beca5d4fU,
  0xbe603e443e0ab884U, 0x3e14e972be14c38dU, 0xbdb6db9ebd0d2eebU, 0x3d305d0ebdcf871aU,
  0x3d3f36be3cc5a527U, 0x3e176b7fbe4a9ac7U, 0x3e0a8f88be4fba90U, 0xbc2441503d29627bU,
  0x3d0cb8fabdfbec04U, 0x3d8578bebd980512U, 0xbda2c50fbe904d8fU, 0x3e1b6b7dbe51f5e9U,
  0x3d4165043da9eaf6U, 0x3dc937c73e0e6647U, 0xbd780604be1c7261U, 0xbdb477ebbd0e342dU,
  0xbba96bf93d101067U, 0xbe0f42df3e2a7ea7U, 0x3b4ee0793d14154dU, 0x3e5c77573f1c9e02U,
  0xbf1316533e46a74aU, 0x3df23e7bbe692348U, 0x3dedf3aa3da7cb67U, 0xbda3f79cbe130ef3U,
  0x3d3557e13e9695a5U, 0x3e2f2a23bd0ff490U, 0xbe9ca92bbf59ed31U, 0x3d5a0e70bda0aeb3U,
  0x3cad4adbbeb11f16U, 0x3cecf7dabe35e03cU, 0x3e40de803d1fcd53U, 0xbeda1c85be85dc0fU,
  0x3e8b9dd63e68f251U, 0xbe04ac90be0bb5b7U, 0x3e04f1d43d71920bU, 0xbe6c48603c99fd83U,
  0xbe19e032be4da583U, 0xbe1939dcbd6cd860U, 0xbe465b873e0cb176U, 0x3c16264e3d4cf344U,
  0xbe94b89c3e6c9e98U, 0x3f86b3cb3de46460U, 0x3c8a3b623e9190c6U, 0xbd899a133e07443bU,
  0xbd0887e93ccca663U, 0xbe0e172d3c8b5b05U, 0xbe0c5de2be2e1be7U, 0x3e5c75d8bec2c5ecU,
  0xbfaafb5b3dbcf259U, 0x3f79b12bbf800d00U, 0x3e0276033c9e8e6fU, 0x3e3418653dc64897U,
  0x3e54786bbdc36771U, 0xbc60e6513dac89acU, 0x3cd8f50c3dbf6ff9U, 0x3ecbd771bd9f01f0U,
  0xbd686efd3eb44f90U, 0xbce80283be6976a3U, 0xbeb009db3dc592f3U, 0xbdf2797ebe8d67afU,
  0xbe5bfb3bbfbdfc87U, 0xbf27968bbcc311b2U, 0x3e2f04ffbe86abd5U, 0x3e59b20fbeb4415fU,
  0x3e1ef702be1a7b10U, 0x3e860fe4bf10cbf0U, 0xbe97113b3d363d61U, 0x3eb489cc3bbcde61U,
  0x3d0081ebbe28a788U, 0xbe0c167f3e4fdee3U, 0x3e419cc23ecaa578U, 0xbea148e73e286dd5U,
  0x3de0de5b3bcf7917U, 0x3d9920e6bdf46c1fU, 0xbd4c0712bbfa7278U, 0xbdbdd1b0ba9a9491U,
  0x3dde063ebe1558daU, 0xbf0169dbbd0e1a20U, 0xbd93ea7cbef36eceU, 0xbdd41bf33d920996U,
  0xbd898289baa27dc1U, 0xbc0bbe9dbeae35d3U, 0xbe1586a53cdd4b09U, 0x3e7567903f1948e9U,
  0xbf0ebc85be6ec6beU, 0xbe351a673da677c8U, 0xbdef16d2bd8b0e17U, 0xbe2b01b2bf6750deU,
  0xb78b2ee2a6c75e52U, 0x3d659d0ebc79e238U, 0xbb621366bd1a334eU, 0xbcc43f39b9f36b6fU,
  0x3dc348593b979ffbU, 0x3d1740f63c3d4ec1U, 0xbc89bce3ba8b1d04U, 0x3d08731bbc07a191U,
  0xbd1925833c8a0049U, 0xa5f249908fed8960U, 0x959112a8bad1aafbU, 0xbc39f4333d863d2aU,
  0xb92380b495e4bb35U, 0x3bc0db433c9a814eU, 0x800000013c6a6a12U, 0x800000003d6b8b40U,
  0x3b90defabd094b88U, 0xbab7ebc5bce766baU, 0x3883677c3a6e7ac6U, 0xbc7e1e46bdb39946U,
  0xbdb8ebdf3bd87e11U, 0xbd2ccd7200000000U, 0x3cc0548fbbccebf9U, 0x80000000bd6755bdU,
  0xbc1be687b4034e14U, 0xbb876b07bd381966U, 0x800000003d8f1ebfU, 0xbce52860b4ad46a5U,
  0x3885c63c3da2b315U, 0x3dacef1ebd8cc5eeU, 0xb5fdf991bd1002cfU, 0xaa8b9194986864e3U,
  0xbabc4e68bb20fc4aU, 0x3c2e540e3a540ae3U, 0xbccb50fbb0eacc4bU, 0xbd8c9386b881640eU,
  0xbbc3c2973c84970bU, 0xbc1178753db3a3faU, 0xbd60d3ff3b297cd1U, 0xbc1d783bbd845d0eU,
  0x3dc613ba3bac9766U, 0xbc6d08b1b70aa7b5U, 0xbd68eb4c00000000U, 0xbb7c01913d8a43bdU,
  0x3d9391c33cccd22cU, 0xbcba5c1880000000U, 0xb8035305a1570c36U, 0xb18d9ab4bbcef472U,
  0x39f8acd7bd6828d5U, 0x80000055bc933a0aU, 0xbac36324bd0c2368U, 0x3cf3ecff95b7ded4U,
  0xbced55a4bb4d1fedU, 0xbd15556600000000U, 0xbd9512f6b00d22edU, 0xbd609bcebb8dfc9bU,
  0x3dade0b1bd8032e3U, 0xb2b0c735bb08367dU, 0xbd9f389dbdbfc97cU, 0xbb43a058b58fba12U,
  0x3caa37a43d763955U, 0xb3a9b23f3d8088c9U, 0xbcfa5da3bc656e92U, 0xbb19bca23b5d1bbdU,
  0xbd406cd03e1281e7U, 0x3e106282bdca2cd0U, 0xbd8d5bd03db4f962U, 0x3cac5d3fbe00945dU,
  0x3e19c235baa2bf9fU, 0x3d97c491be2c49feU, 0x3d99e784bd7856ecU, 0x3db713e2b9dc3716U,
  0xbd057bbcbdf584f2U, 0xbcfcff6f3e0b7f6dU, 0x3bc54ef5bdfe4d12U, 0xbd2c80b83eb7f685U,
  0x3cce02f63e201e09U, 0x3cac31b4bd8ea1fdU, 0xbe406bfdbd98ed42U, 0x3ed03efdbc43d388U,
  0xbd240a6bbdb96dfcU, 0x3d52e265bd7351e1U, 0x3e4a0ac1be75322bU, 0xbdaf51ad3e6a3b66U,
  0xbdddd4663d3f7aaeU, 0xbe0befe8bdee7248U, 0x3d9bfc62bd44315cU, 0xbe038d86bdc964d2U,
  0x3e00d14d3e073b96U, 0x3e6bd31e3d13227aU, 0x3ea42aa0bd9cda04U, 0x3e638ff93e5b1c5dU,
  0xbdb9a3933d392019U, 0xbcf0affbbe88cff9U, 0x3e5bf143bda18301U, 0xbd8f83043eac2722U,
  0xbdd755863ee1079cU, 0xbc9147fa3da726a4U, 0x3da9fa543db510b5U, 0xbdc5aefdbbc6415dU,
  0xbc50d8e5be07aa3dU, 0x3e590b23be2a68d3U, 0xbda2dd563e49667bU, 0xbb950c4bbe82485aU,
  0x3d8b13203e078ce7U, 0xbe16f202bdea2423U, 0x3e4881533e17f3eaU, 0x3d72a3d4bcf0a026U,
  0x3d9226e5be4d3547U, 0x3c14247fbdfeef04U, 0x3e2a790abe7229b3U, 0xbded2eefbdba6b0fU,
  0x3d0b7819bdc7f7e2U, 0xbc4157c0be59fa3fU, 0x3e042bcdbd9e7a04U, 0xbe3465b83d563403U,
  0x3dc0af34bdd189a9U, 0x3e20a8253dd4b493U, 0x3c8cbd15bdfa1d60U, 0x3d66cf5fbe56136eU,
  0xbdb956563daf43b1U, 0xbd8998353e651caaU, 0x3e4defa3bd19e36dU, 0x3dea7e683ece39e7U,
  0xbe5e873f3d7d31d0U, 0xbe2c62ea3cc3fc5dU, 0x3df1f8fb3c0a9833U, 0x3e0dec0c3cbeb1e0U,
  0xbd12b4e9be095454U, 0x3d7329283d0ee717U, 0x3e143a48be4ab01dU, 0x3d7b113d3e3bfb1cU,
  0x3c6c85c4bda3e416U, 0x3c68e22cbc8481caU, 0x3e363382bda28d4eU, 0xbec2cc66be2041b9U,
  0x3e0fde6fbd6512afU, 0x3e734c42bdd5bd62U, 0xbe0bb7163e54f536U, 0x3e96ba8fbe9d3339U,
  0x3f0113053e565285U, 0x3ea91f9abe4b852fU, 0x3d1fe183bd61e9ccU, 0xbdb2ea09be06a1b1U,
  0xbc0e8247bdd6ea2fU, 0xbdc524413d4f9b9cU, 0x3d22759b3e12069aU, 0x3e1f6c72be54e317U,
  0x3e6af00ebd8fa89eU, 0x3e2b08723e12a8aeU, 0x3e2dbfb63ebcb4d5U, 0xbd91e71d3c10d55fU,
  0xbdf00b82be005cd8U, 0xbd946ba13e54cf2cU, 0x3c62fd52bde0d32cU, 0xbd671cd9be6fcb68U,
  0x3e10eb6cbd16492bU, 0xbe07f5323dd9eefaU, 0x3dc8bae83ca80c0aU, 0xbdfc5b60bd5e8f8aU,
  0x3ddd20803e89c184U, 0xbd579e8e3e03f1efU, 0xbbc451d83e21adf3U, 0x3cf9dbff3e38f4c9U,
  0xbddfdfedbe36d72cU, 0x3dbab8af3e53def0U, 0xbe36b17ebea22781U, 0xbdddaa183db0da75U,
  0x3e57ccf73cddb1ccU, 0xbd3f3c913eabb3b8U, 0xbde6b8a9bd07d83bU, 0x3e01426d3e3e8ef4U,
  0xbd51057cbe30ee9aU, 0x3cf97dfd3e67c6ceU, 0x3c5cf8d73dd22dc8U, 0x3d7661633dbaadd6U,
  0x3d0caa643c1fcd1bU, 0xbe9b0a183e85e2ddU, 0x3ddd32fb3d959ea7U, 0x3d9c5bb73d90bb42U,
  0xbe4239913dfc4d72U, 0x3e3c62f0be9f51f1U, 0x3d1453c73e14394fU, 0xbc664c4dbe8b1e20U,
  0x3e914d0f3c0d683fU, 0x3dac77c0be8bc100U, 0xbbdcf0e13dd4d891U, 0x3db62f04beda6c5cU,
  0x3d85ad633e471301U, 0x3bbca5d03e92f56bU, 0x3dabfeab3dd94eb5U, 0x3da8844c3db4cbc2U,
  0xbd9ba34fbf102104U, 0xbe9135efbeba4213U, 0x3dfbe9a63c09de79U, 0xbdb8f9ba3e5b39dfU,
  0xbe391e8ebe6f3ed5U, 0x3dec09e23d19da68U, 0x3c0511babb551aa2U, 0xbcc62c36be685364U,
  0x3dc88c98bc7ef11eU, 0x3ddcf9e83e08331eU, 0x3d8640513e62eb21U, 0x3d66839ebe049d03U,
  0xbda3671c3cd92721U, 0x3d343e683e08d130U, 0x3e9964e23d4de5c2U, 0xbdfbbce43e02c163U,
  0xbdf2c85a3aa7e09dU, 0xbe23f0013dbf8fdcU, 0x3cf41b653c2f469eU, 0x3e328e49bd40d90dU,
  0x3cbc73873dbd3cd7U, 0xbd217b863d889472U, 0x3e544e45bd71d252U, 0x3cb1c12dbc2d30b5U,
  0xbe2a432abe695620U, 0xbe4ad3e43d41c08bU, 0xbd52ccb93df97f47U, 0xbe30caeebd6ba000U,
  0xbe81ecda3e94fffeU, 0xbdbad96dbc9e805aU, 0x3e31304abdfb86aeU, 0x3d354990bf1671bcU,
  0x3e873cfdbe4235edU, 0x3dc6fa583e90823bU, 0x3e0664f53e0833edU, 0x3e3e45773ccb32ffU,
  0xbe1a15bf3e224276U, 0x3d824876be27b3beU, 0x3df21d1dbef4942aU, 0xbd578e5a3e240980U,
  0xbe2e5bcf3e43e6c6U, 0x3e2c85bb3dfb4ebfU, 0xbe00ec213dc7a6aeU, 0x3d45f19bbe2637faU,
  0xbd2fe3d4be9e7b2eU, 0x3dd97415bd8fe162U, 0xbdc5937dbed16381U, 0xbd811e053e0219d0U,
  0x3dbbf3e9be1de2eaU, 0x3e0f6ad23e790f41U, 0x3ea37ecc3d8e23c7U, 0x3e3484973d3165ecU,
  0xbc820de4bdc02e3bU, 0xbd6353c53e1a9cdbU, 0xbd4ae4a33e1dd832U, 0x3e2420c03e156794U,
  0x3e25453a3e80dfc9U, 0x3d0321663c9b6867U, 0x3bf79a133cf2301cU, 0xbcd2807bbf3013afU,
  0x3e8ab118bddf2b88U, 0xbd0735583e418be8U, 0xbdc94cd23e42bddaU, 0x3b430ce43e488ccbU,
  0x3e269b053eac6efaU, 0x3dd973f2be9ada42U, 0xbdd94621bc173d32U, 0x3e39ccfd3e23b1c9U,
  0x3e2ca9b6bd52dcddU, 0xbdfef5103e5f07caU, 0x3ea65f21bdcd3e28U, 0x3e49f938bb12e1c2U,
  0xbe1693083e0d4137U, 0xbe587a82bf01826eU, 0x3cb9f537bc06ccd5U, 0x3bd597523e634acaU,
  0xbf01fb263c9268beU, 0xbdbf226b3e262a89U, 0x3dfc8aab3d26b74eU, 0xbea1628dbcf193beU,
  0x3d9e63963d5c3164U, 0xbd81d9263d790bd7U, 0x3e1d3d7d3dbfb03eU, 0xbf1dbd89bd11d832U,
  0x3cbee967bde8da8eU, 0x3e34a6e2bde5c2d2U, 0xbe2ff8563c587d58U, 0x3da724bdbe0a34f8U,
  0x3e0203e43ea151adU, 0x3d133344be859ab2U, 0x3e1e0bf93e1a9825U, 0x3e7ddec33cd23cd3U,
  0x3d16475fbd9c45b3U, 0x3df53bf2be12ade9U, 0xbde1e67f3dc9035dU, 0x3cff21c5bcea6d0dU,
  0xbe42fe66bea7e592U, 0x3e30a022bf0536ebU, 0xbd83b3e3be84bdecU, 0x3e3f87513ba301aaU,
  0x3e8b5d9cbe594b4aU, 0x3e54e16e3ddebc0dU, 0x3e1e9b663d09722aU, 0xbd1862cbbb268174U,
  0xbe286697bcf5caa5U, 0x3e7cd534bda71672U, 0x3e98342dbf0242c9U, 0x3bc9c6613e0a3833U,
  0x3dbef9b43e91e88cU, 0xbe00312cbef34b95U, 0x3db192ac3d0a9158U, 0x3dafbb2ebd3b87deU,
  0xbe782ac63e219cdeU, 0x3de72a32be0bdb30U, 0xbecf05f4bd96e347U, 0xbe541a16be5747c1U,
  0xbddfe1823e1b11beU, 0x3e2179ec3d6eee8aU, 0xbd1379a4bd9c43abU, 0xbd25f7c1be4d5f93U,
  0x3de6fd25be66e0c9U, 0xbc580ec53dae41faU, 0xbdac5d6b3de68fefU, 0x3e2e8ba33e6c6b97U,
  0xbf2b5244bd9bc374U, 0x3e28bfd2becdef07U, 0x3e3e990c3dea5917U, 0x3e58aeb23daf8951U,
  0xbdec14ee3e77f4c9U, 0x3e7b3349bd412a36U, 0x3ce10a2c3d34aea9U, 0x3e1a3a913da3283eU,
  0x3d92c24f3e04cb4eU, 0xbda10f8c3c2857c7U, 0xbe0342093d08c006U, 0xbda9d9c13e139a84U,
  0xbe211cae3d9778adU, 0x3caee61abe7bb534U, 0x3e3d2040bd5e45f6U, 0xbdd0d22e3e4f4addU,
  0xbc59c1723df67957U, 0xbea186c93e390782U, 0x3dea0443be00fa75U, 0x3e95d4c73e2b36d4U,
  0xbad7bbb4bdaa1231U, 0xbe3d9c863d920bc6U, 0x3dfb6388bf18c88bU, 0xbe7a3b993d8d322aU,
  0xbd990100be130ea2U, 0x3d09c1b4be4e02d9U, 0xbdeedc623d2f82eeU, 0xbcb35e063e1a18bbU,
  0xbde886a4bdb1d412U, 0x3e2c7e9abe407bd4U, 0x3e696acf3d3c73c9U, 0x3dc360053adb7ef8U,
  0xbdab107cbe68da07U, 0x3dc6f4823d253deeU, 0x3eecee56bde13fc2U, 0x3e0f4d533e8036d2U,
  0x3c841bb0bd8668dfU, 0xbc526fb63eae1d0fU, 0x3e6388bcbef90d31U, 0xbe4a4b2ebe323a4eU,
  0x3d48772f3d844d45U, 0x3e04956b3c4ea351U, 0x3e47ec1c3e00b1a4U, 0x3d80511539958bdcU,
  0xbcee3b423c10ff3fU, 0x3dddf6523e1a5d64U, 0x3dc05935be67d296U, 0x3de199d43e37d68bU,
  0xbd0ad47b3d9a1122U, 0xbdeb0112bea417a6U, 0x3e0b0b77bce18547U, 0xbe11ee9bbd8bbc2fU,
  0xbef69672bd4d8c06U, 0x3d57a9bfbe0444d3U, 0xbdbd40313e2f98e2U, 0x3dbcbf2abe1fb44bU,
  0x3e366c283e381a67U, 0x3d083cfe3da99a82U, 0x3e45c4d8bcd05035U, 0x3e8bd255bb786d42U,
  0xbd3f44c63ceee47eU, 0xbe472bd03dd094a0U, 0x3de06544bc5e10daU, 0xbc35df223effd7e7U,
  0xbd8cfe713e130d13U, 0xbb9995fabe4f9f85U, 0x3d3a61f4bdcd3f54U, 0x3df77a923dd72796U,
  0xbd4af3903ec935b7U, 0x3e6a59b93e12c362U, 0xbeeed122be2e2bfeU, 0x3d188e59be0cf79aU,
  0xbe172b99beb7f173U, 0x3dd7c334be58900fU, 0xbe2b6c31bdcebb7eU, 0xbd4e8b893debfdb0U,
  0xbdeb92303d7e107cU, 0x3cf0392bbd42ed2aU, 0x3d863edebc42c84eU, 0xbf1a89f83cb88b87U,
  0xbcca5fb5be297dabU, 0x3cdaef9e3e7a80a8U, 0xbd61d1d43d71eae8U, 0xbd6d899e3db03200U,
  0xbe7002fb3e1496c6U, 0x3ed5b3fdbd3e6c74U, 0xbd1320563daf70dcU, 0xbe18084f3e90ebdcU,
  0xbe5510883e8bcd33U, 0xbbc2e9e43cc2a441U, 0x3e7185083cb35365U, 0x3e2115e6be6b4059U,
  0xbb89c07abdca727aU, 0x3e7306f9bdbe6745U, 0x3cb3486d3e6f3b17U, 0x3e73b0e23e9a070dU,
  0xbd7f9e46bd84500fU, 0xbe6185f4bc96a8b9U, 0x3db171dc3de8c541U, 0x3b4c27083e685009U,
  0xbf44e2b63f0197feU, 0x3e8b9bd0be984f1aU, 0xbef9b926bc24a84dU, 0xbdc14368bf0eb362U,
  0xbe82b796be8fc0b0U, 0x3e2f875f3e5f6189U, 0x3de8a09c3e390984U, 0x3e26f07c3d6e846dU,
  0xbdacd066be7e9371U, 0x3b0bbc1bbf439330U, 0xbbdbdb4fbec83722U, 0x3e3208b73ddf61feU,
  0x3e5c4fa03e11f55dU, 0x3e3499ee3e3bf23cU, 0x3dc57bf83e16fd18U, 0xbeabccbb3d7ef3dfU,
  0x3d0053683e481607U, 0x3ec9dde2bd9d1469U, 0x3ceb9cb63cd4f36cU, 0xbf895c99bbeaaa73U,
  0x3d2d254abc496883U, 0xbe619c23bebfc5dfU, 0xbda5500fbeaa5973U, 0xbe1fb5b03abf3eafU,
  0x3e2940543e5a03a4U, 0x3d8c8a83bd5a2b2dU, 0x3e4a6f09bda59151U, 0xbe187b603f1d1cb7U,
  0xbe1b3f6ebe1de457U, 0xbe20bdeebd9f9e7cU, 0xbccf6de23de1da3aU, 0xbeda2191be9687f9U,
  0xbd80342bbcc819b7U, 0xbc9b7b9abceeeaadU, 0xbe5d5dc83d7eb00cU, 0x3dff07ac3d4c4dbfU,
  0xbe3707623e4f3169U, 0xbd5e452f3e4b8713U, 0x3de36afcbe5da6f3U, 0x3d810d5e3d0feb35U,
  0x3e1dc6e03e80ad40U, 0xbe760d97bd49e001U, 0xbdeb5ca33dec0e59U, 0x3e116c53bdf605eaU,
  0x3ddadba2be8988beU, 0x3dbdec4d3c9d6498U, 0xbe4e38713cd53a3dU, 0xbba344433e068702U,
  0xbe722b433e1b0ed3U, 0x3e9b12a3bd7e8b18U, 0xbb70c2efbe38dbbbU, 0xbe0fa0d43eafc5fdU,
  0xb9c0e98cbe8e9823U, 0xbe4c4fb13dd7e54dU, 0x3bcc137ebe945a45U, 0x3e336babbdfbe885U,
  0xbdc646cdbd78ffa8U, 0x3e5667c7bd045f3aU, 0xb9df50b63ecf1adcU, 0xbcc8d2223d4a8deeU,
  0xbe2eb209be236cc0U, 0x3d182c4ebcf4ff7dU, 0x3d7a7c29bde109c9U, 0x3e33bd0fbf07fdd8U,
  0x3deb3a82bdaff5dfU, 0x3d5e47b4bca9b4efU, 0x3d5814f73da420e2U, 0xbee89d38be48e61dU,
  0x3d20bd5d3d9b1639U, 0x3e7af96ebd9ffedbU, 0x3d8639ef3e0af5e7U, 0xbcc9efa5bef491a8U,
  0x3e70fecebcdae0cfU, 0x3c32ad38be0d71b1U, 0xbe2b94cb3dcfed73U, 0xbdd86f98be14b737U,
  0x3c7f5e673e321ac2U, 0xbe9d9636be1713d9U, 0x3e3342ffbea93629U, 0xbe49d403be9942b1U,
  0x3d36dc3e3e4eec90U, 0x3ddd2a69bbc637c2U, 0xbdc51a883e4efcd4U, 0x3db630743e5193a2U,
  0x3dd2a7bbbe3691a0U, 0xbe3765f33e406dbbU, 0xbd8250823df39082U, 0x3ea2e8333dea8824U,
  0x3d3c6fccbd9a845bU, 0xbe530039be71d53aU, 0xbccedd833e8555c4U, 0x3aa003e13f11b468U,
  0xbe044644bf090a64U, 0xbdd5c2303cb6719cU, 0xbd48f94a3da5e03fU, 0xbe1e5bcebd223678U,
  0x3c032c65beb275c8U, 0xbe9f1a1b3e47d648U, 0x3da090773cba5d8dU, 0xbd4a780f3d05a582U,
  0x3e1301cc3dad44b7U, 0x3df5dac1be2951d4U, 0xbba3109f3df48442U, 0x3d95500b3e34f47eU,
  0x3cb972f4bb1152feU, 0xbd415b913d8d5fd1U, 0x3d889a813e905465U, 0x3d874da6bc1fe9e9U,
  0x3dc74c85bd16150eU, 0x3d73ffcd3cfe6d1cU, 0x3d3d522b3d5c23b1U, 0x3d8ef594be2767f2U,
  0x3dd6e3febe76a8e3U, 0xbcadd6dbbe0276f6U, 0xbda049473ea16d51U, 0x3eb51433bedb3e72U,
  0x3d2f6e6bbebf4362U, 0xbe22b52dba5e3f12U, 0x3e3f88083e5e993eU, 0xbed4bc0c3e34e385U,
  0x3e311e76be3040a9U, 0x3df266f73ba09845U, 0xbe97ba9bbd91a003U, 0xbd4a687abcc8c2c3U,
  0x3e4ac28d3e49f8a2U, 0xbe4566763e30a97dU, 0xbf2c859c3e70439eU, 0xbe61760dbed31f20U,
  0x3e405addbcc1cb6bU, 0x3de3e37bbc36e9a9U, 0x3c0d7161bd905841U, 0x3bdaeb18be0142a8U,
  0x3e548fd23e47335dU, 0x3dcb9ccfbe057fb2U, 0x3dbb511f3da47cf0U, 0xbe9bfc2c3e911a39U,
  0x3df2c05dbdbfa655U, 0xbe3183483d8e7a4cU, 0x3db3f0b83e37d213U, 0xbcf82c953cd182b1U,
  0x3b03af6dbe5cdfffU, 0x3ced17803f00e2daU, 0xbce75ee03e8c04b8U, 0x3dd259903e18e144U,
  0x3ece4aea3c010a08U, 0xbcd0d4c23e0fee2eU, 0xbd2318bebe4af79eU, 0xbc99a8bc3d5f7f2eU,
  0x3d80242fb9efb9e1U, 0xbd339eefbddafc1cU, 0xbe7dc5493e057dcaU, 0xbdcc2a0a3e9002adU,
  0xbda45b123d99be13U, 0x3e838d753d930477U, 0xbcc1d2f23e30af85U, 0x3db8c734bdfd44a9U,
  0x3cf1ec593dc1b508U, 0xbeca59d13e99fb3fU, 0x3ba43f60be6280b2U, 0x3d89aa04bd1bf76fU,
  0x3e04b22bbeb60769U, 0xbe87cc7a3e4780d7U, 0x3e5fb17abce2daa9U, 0x3e6944efbe1a543eU,
  0x3d8d53a63d9a34c7U, 0x3e15150abd655b10U, 0x3e09aa193be635adU, 0x3c4c4ca2be066d51U,
  0xbe34aea0bdd1f0d8U, 0x3e575fdf3e21c63fU, 0xbe2f4c8b3e21cde2U, 0x3dfbe78dbcf27879U,
  0x3e12b3a239a92ad7U, 0x3dd405a53db48af7U, 0x3d874d943dce78b7U, 0x3d409665be696f46U,
  0xbcdb55c53ae65ec8U, 0x3d72bab23ba9bf29U, 0xbdd47b0d3e3e4b34U, 0x3e29ceeebc93afe8U,
  0xbdd565e0bda1b131U, 0xbdc426ddbda42485U, 0x3df9e3ee3e0309c2U, 0xbd0daeed3e49b29eU,
  0xbe317845bdf4997eU, 0xbe1c73dd3e4d33e4U, 0x3d121ea83ddc5c61U, 0x3c54c87bbe74f72eU,
  0xbe2be6133d828cebU, 0xbe61c7f43d9b87e2U, 0xbc4822a93e021957U, 0x3cc58039be082927U,
  0x3e99e3a0be603c97U, 0xbc75bc603ea3549dU, 0xbdddeff83db566f6U, 0x3e75daf63e2855bdU,
  0xbe032433bde2b417U, 0x3d26c9ef3d485881U, 0xbe04a458be82a445U, 0x3e366ad63c014471U,
  0xbde87d633e4e63b0U, 0xbe6f1a023dd1fb9bU, 0x3dd178683e817c03U, 0xbe074194bda03874U,
  0xbe28e4a7bd85473dU, 0x3d13a619bd5cadecU, 0x3e222fdc3de7d5e6U, 0xbcadf4a3bd88686bU,
  0xbdba0d73be3432baU, 0x3d9b14b83e6e49a7U, 0xbc8bbb943ddc6e51U, 0x3db5e7e63dc270b7U,
  0x3c3a2b8d3e127cccU, 0x3d060a523e18ad9dU, 0xbdb24c343dac1f51U, 0xbe3d6b4ab9f21849U,
  0x3d8ecd01bdf5d162U, 0x3dac1152be586277U, 0x3e3445ec3d1ed71cU, 0xbd2e58a9bf018a46U,
  0x3efaf14e3e20a1f9U, 0xbd93c1c13e9caeeaU, 0x3e1b5d553e5a400fU, 0x3da635a9be110eb8U,
  0x3df67355be405060U, 0xbc06211d3e6f14cdU, 0xbd3102543bc2f258U, 0x3d8cf2f83bc240b7U,
  0x3df9d4ef3db57b52U, 0x3e451a35bc7343c4U, 0x3e479506bc7ff396U, 0xbd29c510bdb73124U,
  0x3e16fa9e3df3dc33U, 0x3e28edb93c82a6ceU, 0xbdb709e33e50f7f6U, 0x3d6f3fe63ce2f465U,
  0x3dc557173e3f6e07U, 0x3e11348e3bf4bb8eU, 0x3d2b6ea3bdc16519U, 0x3ccab152bd7fbb1dU,
  0x3e8fc78e3e3c6ac1U, 0x3a6b0bf33dd720e7U, 0xbdcc2e803e656ac7U, 0x3e5ead3bbdca6f48U,
  0x3e59bb0d3e0b13bcU, 0x3d99acc63dd12f7cU, 0x3de04f0c3e8ccacbU, 0xbde084733e37dd16U,
  0x3d691de03da7bf1cU, 0xbe1c302f3e357708U, 0xbe819dd8be5f1adaU, 0xbe110671be879a1dU,
  0x3d8dfa6d3e6b2cd7U, 0xbd867b923e581dceU, 0x3b3072223e0af9b2U, 0x3e02e357be46c5f0U,
  0x3def40533d597b4dU, 0x3dd004723e8693baU, 0x3d2a514ebdd60ff6U, 0x3e4178af3e64e5bfU,
  0xbd3c236c3d5e32caU, 0xbe10143abcb41620U, 0xbe7dcf03bc39cd0aU, 0xbca342c13d21949cU,
  0x3e59698cbd2d6e1fU, 0xbe89dadabda97e77U, 0xbe90ef413e00843bU, 0xbe4aa2543d2c0995U,
  0xbc1bea02be8c9422U, 0x3db2d4f8bdcf52e9U, 0x3dcd514b3eaf0268U, 0x3e6cf70e3cee5525U,
  0x3e4f0df6bde36913U, 0xbda13dc8bb9b6d0cU, 0x3e35faf53d6a635bU, 0x3e102d20bb9b0f96U,
  0xbd830febbd1fd7b5U, 0xbe0e0ff13e0cbda7U, 0x3d6b46713e436c90U, 0x3dbcc5ea3dc012f5U,
  0x3e82ab073df3eac8U, 0x3e943cd1be80eae4U, 0x3dc246cd3dd9a3ffU, 0x3cae00dfbe949d4eU,
  0x3e87da9ebda23331U, 0x3e22665c3e6f1209U, 0xbe3e3b01bde577d8U, 0x3e42ac43be1e8b9cU,
  0x3e44b915bea8e933U, 0xbd91152a3eb8c697U, 0xbde3a5933da76627U, 0x3d1de99c3df51213U,
  0x3e03619cbdae848aU, 0x3e46c4fdbd19ae0cU, 0xbe08821cbd661e8dU, 0x3e5551d6bd96c75eU,
  0x3df5e553be746cceU, 0xbe64d4753e57d279U, 0x3def3cc73df3081cU, 0x3dca554abd38d4baU,
  0xbd0ee1dabe77b706U, 0x3e9754153c2b3f0fU, 0xbde80442bdd7458fU, 0xbeaebccabe74fd2eU,
  0x3b24957abea382c7U, 0x3dbf6b6b3dbbd13bU, 0xbde94eb93ec22c3fU, 0x3eb941a6be62332cU,
  0x3da249c6bd9508fbU, 0x3d0c0d0fbdec282aU, 0x3e8e38823e622abaU, 0xbed927cbbd5f5d0cU,
  0x3e4142a6bd201505U, 0x3df8e72abdeb01e2U, 0xbe4dad693d6ee4a8U, 0xbe4c8a263e0cd9c0U,
  0xbdcaf7863da441f1U, 0x3c89a9a6bdbc3cf0U, 0xbeb070c23ddeaa92U, 0xbe368075bed791beU,
  0x3e5ec0bdbe3209caU, 0x3e2a697fbe75a588U, 0xbe28820d3e787f31U, 0xbd62349bbdb1d56fU,
  0xbe06df2d3e9fe80dU, 0xbd4798d7be523991U, 0xbde51f7f3e521236U, 0xbeba35333e2bca4aU,
  0x3e79203dbe141863U, 0x3d749cda3d9360c7U, 0x3cdb466d3e4aa84bU, 0x3c27c3d23cd12eedU,
  0xbe1e0ce9bda77003U, 0xbe07a9d53eb0ebfaU, 0x3bf02cfc3eac4d36U, 0x3e33e6f43e2896ccU,
  0x3e7871bdbd14a5a9U, 0x3d8f05b43e68bdc4U, 0x3e207205be443729U, 0xbbc8c11bbcd32259U,
  0x3dcdfd123dd3aa66U, 0xbd00be70bdabb9a0U, 0xbe9c81173e26af19U, 0xbde97b683ea329ebU,
  0x3beffd3e3dc4112dU, 0x3e74ea363d4e315cU, 0x3e2c59d23e22804fU, 0x3e6c5439be909b35U,
  0x3e313d6b3e01e23aU, 0xbea211c13dc27f32U, 0xbca5cbf2bc94e5e0U, 0x3dbc1bac3d19dee7U,
  0xbe60b0ab3e5afe9aU, 0xbece9e523dd480efU, 0x3def48a43e146fdeU, 0xbe1bc329be5f4acaU,
  0x3dc49f893e86d8c2U, 0x3da386f8bf398ebaU, 0x3db6300a3df28d15U, 0xbf8e5cdb3ded015dU,
  0xbd4bc092bf1cc601U, 0xbea5dd393f3ca329U, 0xbe7e62293e9486ddU, 0xbf18fd04bde754d2U,
  0x3ee21334bee0df4dU, 0x3f83d175be7e4bd6U, 0xbe04058d3d0f9b31U, 0xbdf8dc52bc9a30abU,
  0xbdd39bcabe0a6489U, 0x3e6f7c04bf04ea56U, 0xbe2eb4bcbf1fc3d3U, 0x3f513ff13e97ca0cU,
  0xbaa4ceb03eaf6b8dU, 0x3d81a075bcaba0d7U, 0x3e5519733ceba162U, 0xbd8e86eebf3e4761U,
  0x3e3dc228bd992f71U, 0xbe56dc173d0d3b72U, 0x3e18d96a3de02fa5U, 0xbfa3d8a4bdded613U,
  0xbe68656cbe102d7dU, 0xbb9ae4d5bd836130U, 0x3d1ef0123e97bcc0U, 0xbd0e95c8bdd13698U,
  0x3eef30dabce4fb23U, 0xbeb289cbbd3d80c0U, 0x3ea060c23ec2d3cdU, 0xbf73495c3e51eb67U,
  0x3e8599923ea8b709U, 0xbe3e31aebf406b5cU, 0x3b21a8adbeb0d47eU, 0x3ae65af2bcf0d426U,
  0xbd91549e3c499d50U, 0xbe9b8299bc4ea78aU, 0xbc385c843ea21c8fU, 0x3d8befc13d91a692U,
  0xbec486d6be13185cU, 0xbe6825b93e19dfb1U, 0xbe2e2af8bf37624dU, 0xbd1ff3d03da6c741U,
  0xbd8f1c63bd3b334cU, 0x3d30f06bbed57378U, 0x3ec301d6bdb16f0cU, 0x3e70c66abd0fdfeaU,
  0x3e6ad835be70c1ecU, 0x3e784dd53debdd40U, 0xbce9f748be0a588fU, 0x3e0ea0b13f01a949U,
  0x3d99d4d43e1fbabdU, 0x3df379b4bfbc5493U, 0x3cb4aa71bd64f110U, 0x3e6ada32beb7fd16U,
  0x3f5412fc3dc8cc6bU, 0xbe1a08f23ec30bf1U, 0xbdc6312f3df0a66aU, 0x3dc49ded3d742ca6U,
  0xbc8322dabf0ac616U, 0xbe060c34be8eca77U, 0xbf239aa4bde36af5U, 0x3d83ba69bda7f79cU,
  0xbe79b3a9bdd40989U, 0xbd82d4063e5a6143U, 0x3cce1974bece8550U, 0xbe20b3ba3c8badd9U,
  0xbd33c1003cc38550U, 0x3e2f13b2bc680b61U, 0xbe7c67843c305e74U, 0x3e0325273cee854fU,
  0x3caa117c3d8e3962U, 0x3cca58e53cb690cfU, 0x3d80bbaf3d9e1b8aU, 0x3e0eb3fdbe2b191fU,
  0x3eb7f243bd35a50bU, 0xbfa2b8c3be1552beU, 0x3da6caeb3e44e9faU, 0x3e2d92a9be91edfcU,
  0x3e642d753dd40310U, 0xbd2f0097bdad0ef8U, 0x3dbbfb623e06f814U, 0xbb4ef7153e92488cU,
  0x3e22b505bda965b8U, 0xbf503c18bcac61adU, 0xbd74c137be936dfbU, 0xbd9649263b6589e1U,
  0xbe1b52c63ebb3e55U, 0xbdd626613e55d70eU, 0x3e2bf9673e1e4c53U, 0x3af477e9bdad65ffU,
  0x3b2f5792be1d66f4U, 0x3c23a75c3e57ff0eU, 0xbe63d7f53e0490daU, 0x3da29ea3bf01e39bU,
  0xbec2316c3e36386aU, 0xbd215ea7bdba151fU, 0x3d591364be6fff25U, 0x3e4b720e3de17caaU,
  0xbd2993333d67c96aU, 0xbe2b0c2d3e24192aU, 0x3d89f77d3e22c1caU, 0xbec3b341bd4e3515U,
  0x3d9a397bbe20347bU, 0x3ddd8cafbd822bf0U, 0xbcabaca4bf0d0a5cU, 0x3e9ef8773e3391faU,
  0xbcd1bfafbe1c350dU, 0x3d7f72893dc12010U, 0x3ea1779c3dc6cf8fU, 0xbde21d42bd7d2f77U,
  0xbd32b0723e52b694U, 0x3db886ad3e619111U, 0x3d462c87bd2ef05bU, 0xbe6b9aa3bd5b994eU,
  0x3e226db33d04665aU, 0x3d07e588bd924ad7U, 0xbdb1b966be180bacU, 0xbc2e4e06bed32bc5U,
  0x3ebe1eb83e7475cbU, 0x3da8a9b83d164b00U, 0xbdeab0e83e39d0ceU, 0xbc9f92c13caf9798U,
  0xbd8500c93ecc42b2U, 0x3e65e6dcbe5ea85dU, 0xbda024a83e1cee30U, 0x3d97df8a3e5f3153U,
  0x3cfec2643dc067c8U, 0x3c8d931b3e10872eU, 0x3bcddeb2bd529b4aU, 0xbd7e172b3dd699abU,
  0x3a9ab0e93e511cddU, 0xbeca5a36bec4482bU, 0x3af4eff5be2285ebU, 0x3c2ca2a63cc6f9caU,
  0xbe876803bd1cc737U, 0xbeb837943d9c9519U, 0xbd5ba5383c91f00cU, 0x3d80353c3df0336bU,
  0x3d4d85473dbbce2eU, 0xbca96a9b3c872450U, 0xbdca30d8bed494aeU, 0xbd3166fd3c47c51bU,
  0xbdb161593ca04c7fU, 0x3e4ffa34bdea6191U, 0xbe8d37fabe9aa702U, 0x3e8095fd3de107b6U,
  0x3dce54813d5dd925U, 0x3e794819bc5ee438U, 0x3dca47b53d7946c9U, 0x3e6cfcf2bdbf6327U,
  0x3c9e82403ce65b91U, 0x3d6a742b3d6200e7U, 0x3e85cb34bea72a3cU, 0x3e3d60ff3eae58efU,
  0xbe88ec36bd762b95U, 0x3e1e0a553ef9dc65U, 0x3e7af491bf38c460U, 0xbcde4ed8bd97f869U,
  0x3da671fcbd9f37faU, 0x3e0ad4f33e80020bU, 0x3d3f7e06bd941e8dU, 0xbe447fe6becf76f1U,
  0xbdd760b1bd2ef3feU, 0xbd9d09d73da2146aU, 0xbd806964beacd8eaU, 0x3e407eac3e1bf4a8U,
  0xbcdf848c3e0e6c46U, 0x3e4e8ed9bf499b7dU, 0x3e3dfc98be904206U, 0xbda7939f3de1f5faU,
  0xbecf1a5b3e3256a9U, 0x3d9136ffbe589ba7U, 0xbe2a758ebe1ac684U, 0x3d732a87be742217U,
  0x3e655a783dab17f6U, 0x3dca2037bd395502U, 0x3cea0f943e51a732U, 0x3de7b8013d3727d6U,
  0xbe079637be1a57b6U, 0xbe4113263df02d36U, 0xbdcad5f9bea8c32cU, 0x3dbdcb533eb05f7dU,
  0xbd89e2d73e033edfU, 0x3e78dd58be974192U, 0xbd9bf6583e09750bU, 0x3d9cfaad3e277ac8U,
  0xbe7493073ea04f4dU, 0x3e4bb65abd1c6ffcU, 0x3cd85bd4bb99a6a5U, 0xbe0d18ecbbadf175U,
  0xbbf44e9cbe0a5a32U, 0xbe5a76983d420b85U, 0x3dccd610bdf6024bU, 0x3e17fc583ca78a4fU,
  0xbe06520ebdae77eeU, 0xbd5c6ffdbe010773U, 0x3e36a471be26bddbU, 0xbd2e04543da6dea7U,
  0x3d47ae053df31f92U, 0xbe4c655bbd38818cU, 0x3d5958703e42133cU, 0x3e42de813d78593dU,
  0xbeaa7158bdcd9b16U, 0xbcc3deaebc8e32f5U, 0x3e8dac6cbe84bc77U, 0xbebacbf23e903555U,
  0xbc7ffd113dc1003fU, 0xbd0eb54fbdf814b0U, 0x3e2aa6c9be0aa50dU, 0x3c0576d0bdfff9e7U,
  0x3dca43973e8fb6aaU, 0x3ded54393d3a1759U, 0x3ec2e6ffbe172b4aU, 0x3df11b1d3e356554U,
  0xbe6566f0be21e015U, 0x3ea56a373d0aeb20U, 0x3d763ae1bcad0992U, 0x3e0cef8e3e87133eU,
  0xbe995d163e2231e4U, 0x3df081e8bec75f7dU, 0x3dacbc3c3cb87aaeU, 0xbe25cd00be9eb856U,
  0x3e402ad2be43d8fbU, 0x3d9e6e5d3e1b9f30U, 0x3e6b6e093d9fd695U, 0xbdb6b00ebe844918U,
  0x3c71ec3ebdf24de5U, 0x3e6f7041bdf0287fU, 0x3e67fe283d7e8c5dU, 0x3e305f1f3dbdd8d1U,
  0x3e012ce7be0363b0U, 0x3b140a37bdea72e4U, 0xbbe1027c3e62afc2U, 0xbe3ba4c6bd154e2bU,
  0xbe1f83c73eaed212U, 0xbc1121453db825dbU, 0xbeae025fbe24d3f7U, 0x3c91f98dbd294dbaU,
  0x3da78578bcb7efbeU, 0x3e11e8a13c3594e9U, 0xbd94ae47bdb7821fU, 0x3d4d5130be4a6615U,
  0xbe1f35503e63fb2eU, 0x3ddc7ce33e0e0d8fU, 0xbd890c52be003877U, 0x3e77f8cf3e094cb9U,
  0xbe455c7bbd92dc5aU, 0x3e1e54e2be14eeedU, 0x3c8bf0e53db96752U, 0xbe648a9e3de5b190U,
  0xbd87a3d3bdba515cU, 0x3dee1505bdf32ee7U, 0x3f243265be880c08U, 0xbf262697bd3431fcU,
  0x3df27556be1b1aaaU, 0xbe4f1c35be2bfceeU, 0x3e917d6f3e1ef790U, 0x3ebadbfd3e0f9f14U,
  0xbd39afb4be20cb09U, 0xbf011fd93d2c4e7bU, 0x3dbe071b3e481071U, 0xbe0a654c3e64035aU,
  0xbd48d67ebf032b25U, 0x3d8a41a1be3a3988U, 0xbdb25e8f3dca26baU, 0xbec87290bc944fadU,
  0xbf0d4ff33e64034eU, 0xbf5cd3ba3df825d3U, 0x3e0543d43cd98433U, 0xbe5b42503e6a8073U,
  0x3e0944963de94974U, 0x3daffcc5bde5ef07U, 0xbd2d329f3d4271ebU, 0x3e69f0f7bd35f198U,
  0xbea554473e4ef31bU, 0x3e925230bfadf5e0U, 0x3e8691663ecf148eU, 0x3dfd9fac3f217452U,
  0xbec997c6bd68ee0dU, 0x3e3dd69c3c9fa368U, 0x3d0e107d3ce8d572U, 0xbd7848e2bebbb2b4U,
  0xbece1dd1beb18029U, 0xbd8ad2fdbecab8f8U, 0xbd6057f5bdc7f0b2U, 0x3e012d23bd874910U,
  0x3e9f64573cd44e6bU, 0xbf2c1ca43dcfb7e9U, 0x3e54b2a63e219036U, 0x3e58e5053e8dabd2U,
  0xbebfe897bf5fd3a5U, 0x3d81a681be3c6129U, 0x3f409c483ddc658bU, 0xbe8bcca63d74bf69U,
  0xbe044b2b3ef49acbU, 0xbf2825263e949201U, 0xbe32109a3ee3c94bU, 0x3e85e9a4bf541c62U,
  0x3cd12c2d3d6f33c4U, 0x3f2cd2073d2dd608U, 0xbe352c3abe34d8caU, 0xbe16ab1d3d36499cU,
  0xbee13ecbbe533f77U, 0x3f1f7bd93e64acffU, 0x3e6deea83eb89034U, 0x3e25ead53e2a4e5cU,
  0x3cc2f0e8bf140cd3U, 0xbf43eb5e3ea363afU, 0xbd4a7b4e3e419b56U, 0xbe5171b7be0c6fabU,
  0xbd516ab7bedb372cU, 0x3e75df0cbe861fdfU, 0x3e9fe535bda56ef8U, 0x3dc28983bf0f263dU,
  0x3e5ccf653e6548f5U, 0x3d796141bdae4dfaU, 0xbed23db5bf3fa298U, 0x3cf701d0be2ece82U,
  0x3d12c143bf0ad66fU, 0x3db8c1413deec498U, 0xbe0a683fbe69e94aU, 0xbec5ee69be08ade5U,
  0x3e5b0e913d45827cU, 0xbe1b87953d92d278U, 0x3e29ed1b3e35973dU, 0xbd1ca078bd65f4c5U,
  0xbd16c38dbd965229U, 0xbecc03fdbde20fd7U, 0xbe42ec223e64e31cU, 0xbe6cda69bd8a5e18U,
  0xbf54faa73d12e7b6U, 0x3fa3d9293e57ef63U, 0x3e7a5a6d3d58d592U, 0xbdf74abf3e9f55d5U,
  0x3da079993cf7c3ecU, 0xbdd7eefcbdb58c0aU, 0xbd856d6cbdda3687U, 0x3e452426be5b4f7cU,
  0xbfa14284bceda4f6U, 0x3f7b7d1bbf702acaU, 0x3e2396303e48f44eU, 0x3e9282353ed2cf86U,
  0x3db4fd703d9adcc6U, 0x3e420447be2cb842U, 0x3cb933aa3dc40e3cU, 0x3e0633cdbdb4d2f5U,
  0x3d357e0b3e8bc98eU, 0x3e819920bec93cccU, 0xbebe39b33e2512efU, 0xbc0f92e6bef4393cU,
  0xbdc15acebf1cc4e0U, 0xbf70c6e13e801033U, 0xbd1021e9be5b2fe3U, 0xbd05a7a0be4475a9U,
  0x3eaafbf8be9ac65fU, 0x3e5b9410bee3467aU, 0xbe3d8f573dfdfee6U, 0x3ef5dc1b3caefa87U,
  0xbc37edfbbe888e5dU, 0x3d6edafb3e6df029U, 0xbcd0704f3e5a5853U, 0xbec6846e3e3e6434U,
  0x3e48c4893ddf2240U, 0x3e702edbbbce6119U, 0xbe2a675d3d616c8eU, 0xbdc0f1cebd9f2102U,
  0xbe14d94f3da40f0cU, 0xbeef3efbbdd7e4b5U, 0xbc5132adbea17a26U, 0xbe1697533d64444bU,
  0x3da1d607bec01ddeU, 0xbcc57d83bf015459U, 0xbcf80ea7bd4b9743U, 0x3e06c2583eb81b3dU,
  0xbedb0264bed85a96U, 0xbe08ee7cbde038bbU, 0x3d9ae8593cd2f774U, 0xbe9303e4bf58ff64U,
  0xbd2d41963ced4077U, 0xbe832b8c3e1bc3ffU, 0x3e10b8bdbc96eb40U, 0x3ce0e17ebe7e67a0U,
  0x3d23f8c93e0bc4ccU, 0x3dd5b2d7be63257bU, 0xbe1a1f79bd0652d2U, 0xbee56b7b3ddf51deU,
  0x3d7deac0be8003dcU, 0x3d38e6c03cc4a363U, 0x3d414f553e89e29aU, 0xbe7065a0be1a679dU,
  0x3eba91b1bde431c5U, 0x3ed07282beca7eeeU, 0xbe62b3ac3d01e5afU, 0xbe761326beada10cU,
  0xbe02e0f7be797838U, 0xbe054d21bc0738a1U, 0xbda221eb3eefd5f7U, 0x3edc0704bd291a03U,
  0xbcacd7b33d90f66fU, 0x3da74fbcbf8a5213U, 0x3e7265b23e8a3f44U, 0xbe287e62be0d8823U,
  0xbe96db043df49f13U, 0x3dd0fe683e722ef7U, 0xbe8c1e123d6aedceU, 0xbef19ce4be9e75c1U,
  0xbdbdfb3fbe7e9d29U, 0xbeb1ec813b99bc65U, 0xbe1971673d1ca6adU, 0xbecda42fbe78bc3fU,
  0x3e02a85e3e5e84e7U, 0x3dfd7ae13d872e1dU, 0x3d9ce9f43ea8565eU, 0xbe3513da3d1b9efcU,
  0xbd945fabbc80c7c1U, 0x3cb04329be9eec6bU, 0xbecafeedbd0633a1U, 0xbec4d1dcbe18bdd3U,
  0x3eb0767f3de22dacU, 0x3da6d225be2e6636U, 0xbd8151133e1715a7U, 0x3e023a46be776300U,
  0xbe4cbabbbf10009fU, 0x3e07d7de3e85f4efU, 0x3c6192d23e864060U, 0x3d6b36443d821a07U,
  0x3e3c29dabe3ea746U, 0xbdf37ecd3ec6c6a9U, 0xbd21b9f0be7686e4U, 0x3e5a76753e8b9abbU,
  0xbdfea38f3ac3f636U, 0x3e0153f8bf2c70f5U, 0xbe80cb7fbbf41f4fU, 0x3d6a5a203f131468U,
  0x3ea7fe8f3dc1c837U, 0xbd92ea04be5f7396U, 0xbdedb1d83de8895aU, 0x3d094ff6bedeea0aU,
  0x3f218a183c443b3fU, 0xbe415e6e3cd88ebbU, 0xbcd6be21be89b18eU, 0x3e00bb0e3e2340faU,
  0x3dcc010a3d72dfa2U, 0xbe65d8b13d181485U, 0x3d0116d83da96279U, 0x3dbfeb3f3db3e9c7U,
  0x3e0c9ae23cf3b132U, 0xbbb29459bd8814f1U, 0xbefdf9133d038e40U, 0xbe4123d1bcb3118eU,
  0x3db9affcbd8810f8U, 0xbeb3fcc83e3c5b68U, 0xbd8a47cb3e02c00cU, 0x3e05c67abe96d37fU,
  0x3e77adf4be5aed45U, 0xbdb10964beb8ab2eU, 0xbe56a5c63d5170a3U, 0xbf002036bd084a81U,
  0xbde901d1bededca8U, 0x3d8ee253bd99bbb2U, 0x3d6b22033e97d763U, 0x3ef64347be458f31U,
  0x3e09548fbe7cca9bU, 0x3e4e49183cc1147fU, 0x3e18c19bbda6ae8eU, 0xbe7e329cbd024efdU,
  0xbddc6ef63d525926U, 0xbdb4e881bbac3030U, 0xbe1d95ccbd360fe1U, 0xbe5ce5f0be634ed5U,
  0x3e0f2725be579184U, 0xbeb0dc813e8e4af9U, 0xbe5bdc923e3f9136U, 0xbe9b1500beb1801cU,
  0x3defad443b1c40e1U, 0xbd80a76b3d6b8223U, 0xbd9eaa46bc90f0b2U, 0x3cc24acdbb1be0d9U,
  0x3db4db083e2c4cadU, 0x3e26b5bebe98cc6cU, 0xbea422ffbe23aadeU, 0xbe4c97c43d4bfd69U,
  0x3e1ec7b53dbaf5e4U, 0xbdf12e393ea1f413U, 0xbe2f9b493e12ccc8U, 0xbdcdb72abf1628b5U,
  0x3e154e19beb51bc4U, 0x3ddaf8ff3e28f993U, 0xbdca0d1dbddff6ebU, 0xbd8dd2c43ccbea29U,
  0x3e937dc2bd92d461U, 0x3d3ded563e350f27U, 0xbd06e62d3e1fd67bU, 0x3e269b173e422ee0U,
  0xbe5eefc9be17c506U, 0x3d29cd9abea1881fU, 0xbeef79473ce80721U, 0x3e2a53e63e941b42U,
  0x3eb5c86dbc9fbc43U, 0x3d36bb5abcb3d842U, 0xbdeaa8623eb600c8U, 0x3e3351debe8f2d30U,
  0x3f2cd8923d11243dU, 0xbd8099623eadc153U, 0xbd3304d1bdd8c897U, 0x3e46e461bd6ba965U,
  0xbdc70d22bc8e3f4cU, 0xbc850d8a3ce79a23U, 0x3d59bfe33ce5c3ceU, 0x3d684340bc1a39a5U,
  0xbd014fc3bd45b1a5U, 0xbdfcd930bc55a77eU, 0xbc8c3f95be034ce5U, 0xbc50a643bcd161b6U,
  0xbcf06d8bbc2fc9c2U, 0xbc9b4353bc10f6cfU, 0xbd0512c6bc5088bbU, 0xbc6893863d141a15U,
  0x26917233bc393ee5U, 0x3ba671d4bd05e734U, 0xba60567ebd39ee60U, 0xbdd01721bcd895a7U,
  0x3c14741dbc8149b2U, 0x3cecaeeabdaea693U, 0xbe19bb83bc22aa08U, 0xbcc49d06bc800c7dU,
  0x3d1f7fccb71251d3U, 0xbd5625a2bc40e254U, 0xbc914a02bd103ae8U, 0x3d2a4798bc8b8b2eU,
  0x800000003e127982U, 0xbde8b7593d3c91a1U, 0xbcbdf08dbd19bac9U, 0xbd04e9dd3d95a607U,
  0x3e006a97bb98679eU, 0xbc916cae3d92ae35U, 0xbb3c7a36bdeef82cU, 0xbde96401bc65d98fU,
  0x3ca1f04cbdbfa2a9U, 0x3db91843800000d7U, 0x3df766e63d6776d4U, 0x3dd96ddd3de991c4U,
  0x3cc5707f80000000U, 0xbd4f1cfcbd1ad78dU, 0xbc6726d4bb4bad30U, 0x3d284fd5bc8963e5U,
  0xbd06b046bd106e9fU, 0x3cc32bd1bc90579cU, 0xbd85f4581ba27eb8U, 0x3bf7020fbc95672dU,
  0x3bc08570bc3c4a89U, 0x3e18cbc7bc8edbabU, 0xbdfb751fbd224e6aU, 0xbd414141bd6259e3U,
  0x3c6c3ea9bc917dceU, 0x80000000be15ad25U, 0x3db8df113d22df39U, 0xbcb6d8d3bc44b950U,
  0xbdc0eb22bcb4dfcfU, 0xbd8a3961ba8d9df5U, 0xbc9248853cc2042aU, 0xbd50473dbd5151a6U,
  0x3b88fa60be0890eeU, 0x3c3571353b8c0c81U, 0xbdd58392bc2991daU, 0xbc57c81dbce054caU,
  0xbd17948f3dae8dabU, 0x3c1fbb7bbc958393U, 0xbd89b2253d525b16U, 0x3d496b2dbe06a0c4U,
  0xbe50ef1abea0a426U, 0x3de95201bec8f5a3U, 0xbf21be1cbcda511fU, 0xbe88fdd23b4371c1U,
  0xbf90920f3dec1643U, 0xbc48bf4b3e19d993U, 0x3e377897bee24893U, 0xbe95c8abbea980d1U,
  0xbe4151f4bd8d7abfU, 0x3e396baebf44665fU, 0x3cecfb7e3e66d833U, 0x3e317c643e0c21b1U,
  0x3e30df263dc5a5a9U, 0xbdca4bfa3e8a2082U, 0x3eb880d3bda03434U, 0x3e9186373e228106U,
  0x3f4aee9b3e29eb8dU, 0xbfa3bf7bbe678ea1U, 0x3dd0433e3e034a00U, 0xbc9ca7e7be164215U,
  0xbc5ebe693e0acb55U, 0x3d4eee6e3dac2d88U, 0xbde021de3e4c70c0U, 0xbe4f24d13ea2e48bU,
  0xbd17f12b3a8fc037U, 0xbf6c683a3eea9efdU, 0xbe1f4bfbbeb8e2fbU, 0x3e67072dbf002145U,
  0xbe61df813dc069d3U, 0xbd9e45793ce36f21U, 0x3c8b89463ca51dbaU, 0xbe10575c3d47507fU,
  0xbf33f94dbe817c3cU, 0xbe882fde3ec64c7dU, 0xbe09a2373deb0d9aU, 0x3e38ced4bebdd55aU,
  0xbf1fc0ccbe16f255U, 0x3f4bc5f23d53872dU, 0xbe5f0984befeced2U, 0x3da3f4023d3ee3cbU,
  0xbdc5e5873dd2598bU, 0xbe6f856c3e2bccdcU, 0xbf162eb4bf50722aU, 0xbf0f0a273e031e8fU,
  0x3d360da6bdcaea3fU, 0xbe47ef983e5376f8U, 0x39935f01beb50375U, 0xbeecaa41bf27fdf9U,
  0x3e01a6d0bdd5b48eU, 0xbedb2d623e9a0c8aU, 0x3cda8cf0bc10bd01U, 0x3dd0fbf63df4379cU,
  0xbf9597a23e4a298eU, 0xbe5ebb1abe8c7670U, 0x3df844debdce279bU, 0xbe95c6cdbf00999aU,
  0x3df82ea83c60d9edU, 0x3e938117beb9d836U, 0xbe98bd0a3a8463a5U, 0xbc71ab1dbf069733U,
  0x3eb52ce93dd0a81cU, 0x3e4cc63f3cca9bcfU, 0xbe4f9dff3d878161U, 0xbef89be13ee80a6fU,
  0xbed457cb3ed39ab2U, 0x3e520bc7bf1078b7U, 0xbf41b72abda17136U, 0x3e8488dd3e2c984bU,
  0xbf41d5f2be3ffa7fU, 0xbed705aebdb0fc0fU, 0x3d324dadbec84f31U, 0xbe8e71f2bead4c07U,
  0xbec0ea143d90a139U, 0xbdd40a7bbefef130U, 0xbf0c82adbdb97c68U, 0x3bc57724be42e62dU,
  0x3e8b4ea43e895b30U, 0x3db952d83ebc3aadU, 0x3d55bf43bd33d503U, 0x3e19d1223e097684U,
  0x3f475d5f3e245de2U, 0xbe8d1ab9bd3308a0U, 0xbe19f465be4ceae2U, 0x3da383ecbe595c14U,
  0x3e6721333e67484dU, 0xbe9ac0c13ea0d9feU, 0x3e353fd83efca573U, 0xbecef6e13e7f3942U,
  0xbdfffc713e87f7dfU, 0xbf5ed7ac3f5a0d2bU, 0xbccd40a4bed6b886U, 0x3d57fd4abe4f77ecU,
  0xbf62a3b13e12613bU, 0xbdb8a52a3e88fc5fU, 0x3e8b0497bdee3526U, 0x3c6f75c03f3efca3U,
  0xbf00129f3e8ea509U, 0xbe9223813ece52b7U, 0xbea29be8bc3f14f9U, 0x3ddd51e2becf5f7dU,
  0xbf1cd7e2be1cc83bU, 0x3f4920b73d29a913U, 0xbeb42d4abf73acc0U, 0x3e681722be122330U,
  0xbe80ee48bee78c3bU, 0xbe8a52bf3e9e255cU, 0xbf01f4a1bf06956aU, 0xbebb44fc3ddedcb9U,
  0xbda06cc13c2809b1U, 0x3ec68706bd20f342U, 0xbe240170bfad3cc0U, 0xbec4c1a6bf70a6deU,
  0xbbb3ffe63e0368b3U, 0xbec7c5353e3df187U, 0x3f121a9b3e0558a4U, 0x3e9474c43e13a2bfU,
  0xbfa47ce53e82df96U, 0xbd611458be85c84dU, 0x3e2c297e00000000U, 0xbe9596ffbef9f1e5U,
  0xbae77eddbdcebbd4U, 0x3db79503be3ae381U, 0xbe1b6047be1af259U, 0xbe7ddd26bdb6f174U,
  0x3db245683d6a4d0dU, 0xbe8bb75dbd9ee4d2U, 0xbe72e23bbbf2a12bU, 0xbe2f9d013f380b5cU,
  0x3e318440bebac07aU, 0x3ded1ec53e35728cU, 0xbdcd2c85bdb058cdU, 0xbd8bf6083e2d9ff2U,
  0x3d4055a13c5dc7faU, 0x3e3d0350bda7d5caU, 0x3cd851a03c2c6290U, 0xbee2e378be629623U,
  0xbc0ee8e4be765449U, 0x3e8400c23e2e2c96U, 0xbe1f18ce397c63d6U, 0x3d7de100be9858ffU,
  0x3e5d63a03bb392deU, 0xbcc3ede4be486f27U, 0x3bc5163d3be665ceU, 0x3e008f423d176a6fU,
  0x3e2c6ae23e07d0a9U, 0x3dfe2eb4bccb8140U, 0x3e1af3663d9b16c0U, 0x3d5412acbdf721a8U,
  0x3e86c3e4baedcd97U, 0xbdc409dfbcad40d6U, 0x3d88d5ca3eabf6cbU, 0xbed273633c280899U,
  0xbe4c43c83e155546U, 0xbdac49a93d951d62U, 0xbd5986bebcc359d1U, 0x3e370c02be98f57aU,
  0x3de09f243db23712U, 0x3d6978333e88c934U, 0x3ca549f33d63520aU, 0x3d96cbd0bbc81d95U,
  0xbc71f069b8eb2f8dU, 0x3cbd5b103e81e469U, 0x3d144a453cc5a622U, 0x3dabe139be08cc39U,
  0xbe9a4fc4bdb1b2a9U, 0x3d1ab88f3e6623dcU, 0xbdbb5642bddc46cdU, 0x3dd3b5a83e809248U,
  0x3e6ebec83e0bb6a6U, 0x3daf74c23e38f296U, 0xbe24e4bdbe1d6c4fU, 0x3dba33c83e65d5d0U,
  0xbe10819cbd9fe564U, 0x3d8316343e81ba26U, 0xbd178b563e606837U, 0x3d302b093d5f261aU,
  0x3bf38ae4bd6064ddU, 0xbe6b13593dbe44a8U, 0x3e8b11713e3acde9U, 0x3ea95d203df89279U,
  0xbd08c6383e0f6b1dU, 0x3cc161b2beabcb5fU, 0x3e1eb2173e2c5446U, 0x3badcf16bf218e92U,
  0x3e3bedde3d875a9dU, 0x3e88dd34be9c6ef2U, 0x3bf8cb58bd091df0U, 0xbcd0a004becefb0dU,
  0x3e243b573e33fee8U, 0x3de9c31c3ea2c706U, 0x3e1660303d91d14dU, 0xba991c25bdbe1da7U,
  0x3ed287a4bfa761f3U, 0x3e047acc3e579019U, 0xbfe30067bd5b18baU, 0xbeec18123eb6eb54U,
  0xbadb36e6be16184aU, 0xbe4d342bbe45b8b2U, 0xbd3c7e9fbdfe9f08U, 0x3e3ae3f53e6270b8U,
  0x3e6cad95be1a8f3dU, 0xbe4ee6d23ebfd22bU, 0xbc69d4213da8b71dU, 0x3d5c47ac3deb0714U,
  0xbdf2d7e2bf82791cU, 0xbd204909bd2904dcU, 0xbe2b67fb3ecf3760U, 0x3eb44e6a3c259a03U,
  0x3f373cf9be803e2aU, 0xbf7026ea3e970d7bU, 0x3e9938d63cd85811U, 0xbd14c75f3da58dc6U,
  0xbdbeda85bf6727c9U, 0xbf7fc87cbb3cdfa7U, 0xbf3cb16bbd2b0f7aU, 0x3d855a193e47cf94U,
  0xbd73d2f43dceda9aU, 0x3e1fef59bf1a68a1U, 0x3c40f7e2be857122U, 0xbe9dd9183e67500bU,
  0x3d0016f33d0026faU, 0x3e3ef0ecbd3b8e09U, 0xbf940e583cbc625dU, 0xbe172d1bbf56c70cU,
  0x3e355820bf4137b1U, 0x3e1b01a5bf0a2fd4U, 0xbebaaf58bdab9f53U, 0x3f18cf66bec35089U,
  0x3e12b5ea3da726d9U, 0xbee67a25bd85657cU, 0x3d8c5a9e3e403c19U, 0xbefff55b3e770ca6U,
  0xbcb7107dbe844111U, 0x3b8349cdba462b5dU, 0xbe898e2c3e63ada4U, 0xbdaeea243cdf368dU,
  0x3e023b0ebbd8a417U, 0x3d0640a93ee4c81cU, 0xbf2dc75bbf748831U, 0xbddaaa103f020b3cU,
  0x3ebfc0793e3e7959U, 0xbe95f4513da4de62U, 0x3d33a17cbc88d573U, 0xbcf0305c3e1a0c89U,
  0x3e4345fbbebcfdf1U, 0x3e3c780cbd9ca26eU, 0xbeba78ffbf4e76bbU, 0xbe9b6dbf3e590707U,
  0xbe4d4036bd3f63adU, 0x3e33756c3ede946bU, 0xbd91a60bbf1e599aU, 0x3ef5f1a8bd18a764U,
  0xbe35315d3dfd8918U, 0xbeb8c23b3ce2af8aU, 0xbf54b8063d02af93U, 0xbf066cfdbf1a189eU,
  0xa4cd00000000U, 0x80000000U, 0x680000000U, 0x8000000000000000U,
  0x8000000000000000U, 0x0U, 0x802b77b6U, 0x8000000000000000U,
  0x80002fc400000000U, 0x8000000080000000U, 0x8000000080000000U, 0x800008ba80000007U,
  0x8000000080000000U, 0x0U, 0x8000000000000000U, 0x8000000080000000U,
  0x8000000000000005U, 0x80000000U, 0x80000000U, 0x0U,
  0x0U, 0x8000000000000137U, 0x0U, 0x80000000U,
  0x8000000080000000U, 0x8000000000000000U, 0x8000000000000000U, 0x8000000000000000U,
  0x8000000080000000U, 0x8000000080000000U, 0x8000000000000000U, 0x8000000000000000U,
  0x800000000141f670U, 0x8041a4f9U, 0x8000000080000000U, 0x80000f63U,
  0x80000000U, 0x8000000000000000U, 0x0U, 0x8043841e00000000U,
  0x53c039U, 0x8000000080000000U, 0x0U, 0x8000000080000000U,
  0x80000000000001cbU, 0x8000000000000000U, 0x8000000000000000U, 0x80000000U,
  0x8000000000000000U, 0x8000000080000000U, 0x0U, 0x0U,
  0x8000000080000000U, 0x80000005U, 0x8000000080000000U, 0x8000000080000000U,
  0x80000000U, 0x8000a29880000000U, 0x8000000000000000U, 0x8000000000000000U,
  0x8000000080002eeeU, 0x0U, 0x8000000080004addU, 0x8000000000000000U,
  0x3af5bef7bea85290U, 0xbdf8c3e1be0203cfU, 0xbda609b7bda4ed05U, 0x3d9169693d7f0032U,
  0xbbe4d1103dd0bc88U, 0xbe0a5f923e1c9771U, 0xbd3fe2043df16c16U, 0xbec4f306bd64776fU,
  0x3d8e1efc3d099e1aU, 0x3da4e1f33d240a41U, 0x3deba23c3e448e6eU, 0x3db0b54e3ccfb857U,
  0x3cce0f573d5c6600U, 0xbe8c2279bdfc7d77U, 0x3e6394fa3d09f7ebU, 0x3dc61d20bd6b9a79U,
  0x3e68ed553e3712e0U, 0xbdcfc45cbe3dd00cU, 0xbdfee5a13cdb52f3U, 0x3e8f01d3bdbe6495U,
  0xbddd5f5d3d42efb3U, 0x3e2460f6bd3deb7dU, 0x3e19ffb93e4b529eU, 0xbe7c77f23e194630U,
  0xbd0c686b3e1c6d6cU, 0xbdc1889f3d81a1a6U, 0xbd82ca53bda6538dU, 0x3d4c294abeae0f6aU,
  0x3e1695af3e007302U, 0xbdd04d113e60d4d0U, 0x3e3d29163ddefd41U, 0x3db99607bea15cc0U,
  0x3e823993be84c0cdU, 0xbe29d5a03ead6724U, 0x3e32d1d23e06cfe2U, 0x3e402aa63e2adab8U,
  0xbea51163bd13808dU, 0xbd9e040cbcfab586U, 0xbe47d5c1bf16da88U, 0x3cdbb344bdb2191eU,
  0xbd1e689b3e1de543U, 0xbd5c00353e7c9450U, 0xbe59da5dbd9ad44dU, 0xbe1d5ac43dc17734U,
  0xbd299d07be9eb0a9U, 0xbd8d1eb63d43328eU, 0x3dacfe323da5a76aU, 0xbb26fdfe3deacd8dU,
  0xbd856fdb3c5042d1U, 0x3e2e92fcbdf13a0eU, 0x3e4959603e841e70U, 0x3e8714ebbc49053eU,
  0xbdbbc3c93dbf0cafU, 0x3d477a773d703b4fU, 0x3e0104943cf7299dU, 0xbd9811bebdf13596U,
  0x3e035d2a3e6b516dU, 0x3e334942bd86a023U, 0xbdfe811c3e2d1de0U, 0xbd1990f9beb5e162U,
  0x3eb4d2eb3e37d122U, 0xbcebd2723e7cb22eU, 0x3dbb2de33d5acb18U, 0x3e117fac3e75dd94U,
  0xbe132f94bf81bf13U, 0xbd9fac79bc9bb81aU, 0xbee99ae9be417fedU, 0x3d66ab903e4e2bb6U,
  0xbd63c5d13c3cda22U, 0xbebcc063be4efe22U, 0xbd0eb10cbe174202U, 0x3e078a093e22b5bcU,
  0x3e72d4f33e049aecU, 0xbeaa92c6bd4807cfU, 0xbd8ed43bbdab5c80U, 0x3d80c9093dae2435U,
  0x3dbcb582bf087ee4U, 0xbd6a13f53d9daf1dU, 0x3d81cea4bbfe016cU, 0x3e2c71d8bc77b505U,
  0xbeac84c83ddd526eU, 0xbebad5f9bdf6c834U, 0x3e412c4ebd294bd6U, 0xbe8fad953e63a2cfU,
  0xbd27e045bd68240dU, 0xbe11a27cbd06db28U, 0x3e428b06be37a31bU, 0x3d0bda36bc8e1a4fU,
  0x3da679f83e78e800U, 0x3b9c57213d041309U, 0x3dfe99c53f0bb0dcU, 0x3d946d30b99dba35U,
  0xbf2cdd14bcfb11baU, 0x3bead4ac3de0d5f5U, 0x3e369164bdf071a6U, 0xbde14f63bea8d109U,
  0xbc5d1746be48affbU, 0x3e6d64dfbf2e52c6U, 0x3e35af09bdc42f2eU, 0xbb110aa63d77aeebU,
  0x3d519fb8bd8a2905U, 0x3efb0a463e321c79U, 0x3cf62cbb3e9a1ab8U, 0xbd81504dbe808aa5U,
  0x3de3c083bd42f87eU, 0x3dab99a6bd1e6d22U, 0x3e399113bde30f41U, 0xb9579b513e869e28U,
  0x3c40d3f43d553c5bU, 0xbe56571f3d0edb2eU, 0x3bace0473e980324U, 0xbe4e2c97be95c725U,
  0xbc9fbc953d70667bU, 0xbdaa95b7bdb25a83U, 0xbf4e9101bd5163f8U, 0xbda56125bd93e8a2U,
  0xbdccdc14be54eac8U, 0x3e49ad813cd1a3e8U, 0x3e6f0a663dfd3ffaU, 0x3d27d5bcbd0e8941U,
  0x3cde92a43e3e3121U, 0xbf8690f7bd12db64U, 0xbe08f2623e54f833U, 0xbdee972c3e983f26U,
  0xbeceaf3bbec570c1U, 0x3dcdd8fabed5647aU, 0x3e566f8dbda2934aU, 0x3dd5c70bbd8ed822U,
  0x3dd0a4393e412d1dU, 0x3ca5ace23d1375a4U, 0xbd9c0e81bdc01aefU, 0xbe795d1a3e04b2b7U,
  0x3d993a2a3e4f2a79U, 0x3d8d4ce83c8274daU, 0x3e84d74dbe957f1fU, 0x3d4566ea3e2ba394U,
  0x3e689fcbbcaa6de7U, 0xbe8e9b3bbf1fb065U, 0x3dd89718bdd03362U, 0xbe03a8433ce20b96U,
  0xbe921039bdc28447U, 0xbe2ef2723dc0f68eU, 0xbe30eec1bdc138e4U, 0xbe14a967bd5957d5U,
  0xbf601310bd62f047U, 0x3f443c33be03dc28U, 0x3cfeb0d6bd822df7U, 0x3dbbcfe83ee09fb8U,
  0x3dae9fd63d7439f0U, 0x3e7cd4823c6373a5U, 0xbc82a3233bc1b9b9U, 0x3e6435d73e080b11U,
  0x3ca7b11c3cce915dU, 0x3eef1728bf024973U, 0x3c89e5833ead31a5U, 0x3e31dd7dbd138637U,
  0xbccd25dbbdc430fdU, 0x3da232053d3135b7U, 0x3d034e05bdbd412cU, 0xbd9aef3e3dfa5d46U,
  0x3c1f72733dc22b28U, 0xbe0bc113be752abeU, 0xbc88f023bc4b7bc5U, 0x3d3d07ad3d8c7038U,
  0x3d24b70a3dd60db1U, 0xbecdefbd3e949471U, 0x3dba89a83ea8a9e5U, 0x3e054b99be01238fU,
  0xbd6eb882bf02609eU, 0xbca9d542be53e5e3U, 0x3ebe260bbebc1128U, 0xbe98c17b3e7a93aaU,
  0xbe2594293e849854U, 0xbea8a1803ecc37eeU, 0xbd8fd63b3ead6354U, 0xbf847586bf3c3cf6U,
  0x3e0ececf3e87d1e8U, 0x3def0dd8be3a824eU, 0xbd8705f63e4d4f1eU, 0xbde09ea13e822ea7U,
  0xbec98fa2be951f49U, 0x3eb5bf923e721e36U, 0xbd06cfc4bfa3347cU, 0x3e8989b33e106bd2U,
  0xbd1afcf0be2555a7U, 0x3cbd4575bdee22d2U, 0xbdac58263e44292aU, 0x3dfe31e13ed8122bU,
  0x3aa73a49beb21831U, 0x3e4071813e01deebU, 0x3e3e47ce3e0c9827U, 0xbd5773d2be28612cU,
  0x3d907ecebee16543U, 0xbcbb9fe73eb70531U, 0xbd809a563e151c48U, 0xbcf341d7be7a1932U,
  0xbc9c4f2dbdfd9cf5U, 0xbdc69b793d1cecd0U, 0xbe48bebf3dbf66ccU, 0x3e28baf53cc480bbU,
  0x3e0808423e3aadfaU, 0x3e62ae223ec540c3U, 0xbe23a6553eb00296U, 0x3e1530efbdda914bU,
  0x3e1ab192be67ba3aU, 0x3ea56e353dffae8dU, 0x3d1706a1be8716ebU, 0xbeb2eb8cbd77f050U,
  0xbd835d74be908366U, 0x3bff277abd9423a4U, 0x3cd1f96f3f413785U, 0x3e89cea3be9c8129U,
  0xbd301216bd3ce286U, 0xbde511b73e3873c3U, 0x3df55f85bd5c1a5dU, 0x3c1afd003e3d3eb5U,
  0x3e415878bd49647fU, 0x3d8fdae638886276U, 0xbe0ebd3d3e02507eU, 0xbd7f740e3e38049bU,
  0x3e4fec7d3e7cd505U, 0xbe59e595bd881595U, 0xbf637c913cfaf2e4U, 0xbdca162dbe3b074bU,
  0x3e049db03dc241fdU, 0xbd9db7dcbe05cc5cU, 0x3c6b84e53e342020U, 0x3e938b543e07f177U,
  0x3d4365ea3e079d82U, 0xbddd6c7e3d68ecd8U, 0x3e9307fb3c2ff663U, 0xbe7d5a323ebfdf4dU,
  0x3e7df53dbe1181d0U, 0xbe2b1d833d8eea3cU, 0x3e1e24093eaca2acU, 0x3dd4bf65be899500U,
  0x3d4ea428be1879e9U, 0xbdaa310d3e74e16fU, 0xbe10db8b3e6b74c2U, 0xbcf3a4e7bdb88eb6U,
  0x3e9b54cbbdd430a3U, 0x3d8746333cc04a14U, 0x3e656f6ebf112075U, 0xbdedd7463cd53bb8U,
  0x3dec7c283dc80ea8U, 0xbdb2ebbbbd869aeeU, 0xbe9b8dd83e02c64eU, 0xbaf7fdbe3e30ae44U,
  0xbe5d44c8be2adf33U, 0x3eaec5b13bcb8f40U, 0x3e6307eb3ee256e9U, 0x3c50074bbe4fcb81U,
  0xbd1229243c9df006U, 0xbc8ca2613e6d89e0U, 0xbe201419beb077afU, 0xbc6560333de4ecf2U,
  0x3dd44618be033e68U, 0x3e121c43bb836537U, 0x3dda2ac83d8c3909U, 0x3da6c892be08fbbdU,
  0x3d1b080f3e00bfb7U, 0xbe2163f1bd8a6d51U, 0x3e11aa6dbc694eeaU, 0x3dd91c66bbb6a7fcU,
  0xbdde48453d88564eU, 0x3e1e8ed800000000U, 0x3e15378fbe3627f6U, 0xbd630356bd0c9e82U,
  0xbe163658be231318U, 0x3cd19252bdb3dc8fU, 0xbd18db7ebd228dedU, 0xbe0e42f63dcdc9f2U,
  0xbe079f2ebe033e31U, 0xbd691ae43daf2744U, 0xbe209e693da935edU, 0x3d87f2abbe3fae46U,
  0x3e069a99bd2cd51dU, 0x3d879deebcada118U, 0xbdf1c9193c890108U, 0xbd5e71acbd84f341U,
  0xbdce21babd9ee341U, 0xbdfb3d66bda2d5f8U, 0xbe0f2bfcbc14b48cU, 0x3d68c7333d2e9b41U,
  0x3ba9d0f9bccc869bU, 0x3d26903abc85b760U, 0xbd99c2223dd9159eU, 0x3ddf7121bc1fb452U,
  0xbd0569c53daed25cU, 0xbe4758c93e0ec7d9U, 0x3b03bd8d3e069681U, 0xbe16614abdcbf81bU,
  0x3dafc3d7bc78688dU, 0xbe2af786bcf23e89U, 0xbe0cfda4bd83e937U, 0xbe2f6191be2245f5U,
  0xbde0e5573e0a4feeU, 0xbe01f7853d91eb71U, 0x3ce421d0bc327c4fU, 0xbe3103bfbe1ba199U,
  0xbbbf6ec43c112104U, 0xbc5795c0bd33d69aU, 0x3c9987313cf6ab10U, 0x3da886babcfa2220U,
  0x3e159f27bd311926U, 0xbceda5ed3de64cfbU, 0xbe1a0b14bdfb816cU, 0xbc855f643ac8d14cU,
  0x3c3127fcbc21d9d3U, 0xbc17d4a7bd317d0aU, 0xbdf744483d8984f9U, 0xbdbfc11fbe068c5aU,
  0x3e04fe123d57a974U, 0xbc3aad93bc71d8b8U, 0x3d7bb902bcf60f1eU, 0xbd697ba6bd90282dU,
  0xbde21128bd2b6908U, 0x3d852f31bce68de8U, 0x3d88ab373d075452U, 0x3da03abdbe07f3f0U,
  0x3ca8b684bed7c272U, 0xbeb23ffc3dcdd31bU, 0xbe83dfb23e6f59c5U, 0xbe1bf179bda986c0U,
  0x3e84a4033e004270U, 0xbe315be8be097c5fU, 0x3d1190173e5641a2U, 0xbd012239bd95d297U,
  0xbe233ca23e2abdc4U, 0xbe8b11c83ea60149U, 0xbf5a5c2d3e5594a8U, 0x3d8a9a103e00d83cU,
  0xbd3698e4bf22b8ceU, 0x3e907ac43e166c9dU, 0xbe19a4d8bf29bdc2U, 0xbefbb049be35908bU,
  0x3eaf4ce7bcdb5651U, 0x3de62d2bbe495715U, 0xbe5b6c123f0811a1U, 0x3de75ac9beb86ea0U,
  0x3d2688dbbf159ba3U, 0xbe9ffe423e30ca54U, 0x3d9e10dd3e19f069U, 0xbc2e0f103e3e08a7U,
  0x3df48a07be9f6bdaU, 0x3c11cd77bd9467bdU, 0xbebe230dbe0dea26U, 0xbe40f1753dfee8caU,
  0x3e888bb3bdcb2bd3U, 0xbe4595833d2e8239U, 0xbfb4d9ba3e231325U, 0x3de1d8eabee7944bU,
  0xbd732febbe98829bU, 0xbe1f610f3d13f0deU, 0xbe4c16f9bf745601U, 0x3e63d6d63eb33021U,
  0x3e039b153d89ecb8U, 0xbde4095c3cb3a206U, 0x3ea45ff83c39669eU, 0xbebfa8dd3ede8a92U,
  0x3c82d7ff3d5cbfcaU, 0xbe85b643bdc2dd11U, 0x3d91c9453e49c416U, 0xbe06e950bdabfb58U,
  0xbe1848313c4503bcU, 0xbd87c67f3e1c619dU, 0xbf05e3323ec1ae74U, 0x3e79a580bdaac148U,
  0x3eefba49bf4625b5U, 0x3e20a26e3e5bdb7bU, 0xbcf12796be25cff3U, 0x3e1752bfbd5f6f85U,
  0x3e5ca414be918b53U, 0x3e178dbd3e42a460U, 0xbf044a1d3db8dcd6U, 0xbe40ca2f3d19570eU,
  0xbe2d17803d7a2d59U, 0x3eb4250f3e083361U, 0x3e872c153e868333U, 0xbd20b7703f2b57a4U,
  0xbcea0b503dd04e3fU, 0xbe3cf5b53e2b71efU, 0xbe75056dbe707e6aU, 0xbc85ce1c3df882fcU,
  0x3dcfd9fdbe1d1caaU, 0xbdf98a6c3ef63a5aU, 0x3e16e6393da63f88U, 0x3ba42eb6be4d2b41U,
  0x3db6849e3e2ccfa1U, 0xbbb2e275bf04883dU, 0xbebbe733bde183cdU, 0xbed57e893ddefd68U,
  0x3c8ac72fbe6ca140U, 0xbbf0572e3e6b7c9aU, 0x3b4f82a63e7249b4U, 0xbe5594c0bed8d2deU,
  0x3f12c695be39e920U, 0x3ea045ecbee390a8U, 0xbec680383df4509aU, 0xbf04484ebe858b3cU,
  0x3d340547bf132b96U, 0x3c426691bc9c9103U, 0x3d3c075d3f0c0bbbU, 0x3e8edcdabdff48d1U,
  0xbf047aad3cce3401U, 0x3dca0ec2bfb3180aU, 0x3eebebba3e92c21aU, 0xbe9ea853bf3b15b3U,
  0xbf089845bb7d9f62U, 0x3dbe83aa3e6e4e6eU, 0xbec9be4dbd9a489eU, 0xbf090737be8bc38dU,
  0xbd32c0a9bf4ec703U, 0xbe72be9abe70274aU, 0xbe53f585bda33042U, 0xbef1970fbe22ce2dU,
  0x3e95b9963ef4219bU, 0x3e51397bbe421b0aU, 0x3db0d2ec3f272e47U, 0xbae920383b56d43fU,
  0xbd809bd7bd4de709U, 0x3e03a74bbdb0f451U, 0xbc981ea63c9290ddU, 0xbedbd177bd189b8cU,
  0x3e3f78c13dd042b4U, 0x3bde248cbf05b095U, 0xbde9b5c73dc0a5d6U, 0xbd20de74bf0546a2U,
  0xbe33e445beb15035U, 0x3dd4757b3e63372fU, 0xbdcba46f3eb5ffa4U, 0x3ccfc5ad3e358912U,
  0x3f0d7ac23d5e58deU, 0xbe95c07b3e704c98U, 0x3d8c8414beaf8f9bU, 0x3eb19f313e358ddaU,
  0xbdfddb2dbd5f3a37U, 0x3d557162bedcb146U, 0xbf0e56633e49e284U, 0x3e7894c93e8b4fa4U,
  0x3e9865123d628079U, 0x3c59016ebed1f9feU, 0xbe1594663f0ccdceU, 0xbd87702cbe82393dU,
  0x3f08854abc165dbaU, 0xbecee32a3e869922U, 0x3e3338b6becce2f4U, 0x3d82b84f3e337495U,
  0xbdc240803ee94d10U, 0x3e4d8100bc1c5fa7U, 0x3e13782e3dd6a7d6U, 0x3ced57953e0f5ed8U,
  0x3deb7400be13a592U, 0x3c35252b3dd4be76U, 0xbd529e133c394e70U, 0x3e3d5e44baf6d0f9U,
  0x3e5140eb3df66532U, 0xbdb384e8bec32bdbU, 0x3e31016ebd9a59d2U, 0xbe47a4cb3e25373cU,
  0xbe501e0cbe257363U, 0x3dfe82bb3e288c17U, 0xbe657ac93e13b65aU, 0xbe2f07f43e51c0a8U,
  0xbe45084cbc2fb4e4U, 0x3dd901c9bdd7646bU, 0x3de033ffbe387613U, 0xbed4f0e43e9ee807U,
  0x3e416f35be4c93deU, 0x3e238fc6be590ddbU, 0x3e0deac3be0ba551U, 0x3e690b493c420922U,
  0xbd6854febdb265feU, 0x3da5b76bbe74e8cfU, 0x3e92fd403e39577eU, 0xbc9ef7b63cd68640U,
  0xbd292e81bdf710bbU, 0x3d989f103e00aa78U, 0xbe57ddfabe278c44U, 0x3ddcf67ebcc7a80dU,
  0xbe5b9759bde57b3cU, 0x3df2056abec73a5bU, 0x3e0a876cbd94a2b9U, 0x3d067e393c845641U,
  0x3e97ec43bcbc1d02U, 0xbc8084303dd03024U, 0x3e23861b3c3e45adU, 0x3df34fb2bdecaf13U,
  0x3e016c4b3cbeeaa7U, 0x3d0ccc893d81f91aU, 0x3e8033d7be65c527U, 0x3caf2eee3e0dd70dU,
  0xbd9802773ea2e8cdU, 0xbd082893bf07e8c1U, 0xbdea19bbbd81e604U, 0x3acd3099bdd42f9fU,
  0xbdd849043e1c8d00U, 0xbbc0d155be21241eU, 0xbe7de2d13e195c82U, 0xbe6488c8be132b80U,
  0x3dab5752bd9f72abU, 0xbb98aafd3e2f9e70U, 0xbd9863ba3e3eae05U, 0x3e212e623d84528dU,
  0xbdfc07293d70885aU, 0x3c4e6cc83d08a853U, 0x3e462a29bcb7a3f6U, 0x3e19d4ab3e6519bbU,
  0xbe88673bbe3810b5U, 0xbe2799ccbe5a8502U, 0x3e30d94d3e55868dU, 0x3df201353e34d5fbU,
  0xbd0b5b8d3e5828faU, 0xbda78f04bdf9e7c8U, 0xbbaedddebdb13b9dU, 0x3e07d14d3d7adea4U,
  0x3d2334f13e37db2dU, 0x3c5d3c1cbdc80a6fU, 0xbe3ac9f9bba02d70U, 0x3e84ed75bc985886U,
  0x3e5fc864bd2506f3U, 0x3dbc7b7abd9b8a1fU, 0x3e0995cfbcee5a1aU, 0xbe6f2da03e733765U,
  0xbdd0f6583dfbd8b2U, 0x3e643a7f3db334dbU, 0xbda37e923e1a5997U, 0xbc8c9af6bc8d8bf9U,
  0xbd0497ac3e400488U, 0x3e14eed63e5b310cU, 0x3e5b02e3bdc9eaceU, 0xbe88554b3e935abfU,
  0x3e1d9e623e082607U, 0x3e296776be766d18U, 0xbd7e58763cf4d58eU, 0x3ea1b949bc10c56cU,
  0xbe05dce63df2a751U, 0x3bf88376be318103U, 0xbcd9f63abd76a434U, 0x3cce279f3e853945U,
  0x3dde82643db0f52eU, 0x3e6e0ee2be36cfcaU, 0xbbedb0063d531e9fU, 0x3dfcc0f53e9961eeU,
  0xbe6166313f06bc69U, 0x3e17a640be2e7457U, 0x3e9bc28bbcb202b1U, 0x3bb3e2c6be38a890U,
  0x3e09e0a0bc1b7f0aU, 0xbe00c114be0bfe3fU, 0x3e2d92a43c480589U, 0x3da0a3303bb7398fU,
  0x3c9cf180bc6865a1U, 0xbc8a2d14bea989d0U, 0x3d2b11a7be9cf86cU, 0xbda36c50be0b4855U,
  0x3e44329a3e107fa5U, 0x3dc14af6be2519a1U, 0x3e0c9f19bcd2a6f8U, 0xbe81e04d3e182671U,
  0xbcfa51e63d64a789U, 0x3e9accbbbba2813dU, 0xbdfb6eaa3e4fddd9U, 0xbe3bb0d9be78671aU,
  0xbda2f22a3d1ba90fU, 0xbde40d1c3e65ef94U, 0x3db0602ebe57454eU, 0x3e37ade63d4effbcU,
  0x3d6b1596bc5b9de2U, 0x3c3829ec3e89b38eU, 0x3e2dec873e282006U, 0xbcd559803eb4694dU,
  0xbeca416fbd993b5dU, 0xbdfecf92be8d5a66U, 0xbc1c427abe05b383U, 0x3c75816fbdf0aed4U,
  0x3e03102a3e4229cfU, 0x3dc0b7f23dcd3f4aU, 0x3e078f95bc5ff9cbU, 0xbca189a4be33df96U,
  0x3d83aa0e3e0bd2f8U, 0xbda886f53c81bde0U, 0x3df7fa31be1768b3U, 0x3db4b6adbd3050acU,
  0x3e0e02e93e0495cbU, 0xbdcd80c0bee2a107U, 0x3d8eecf33e1654b9U, 0xbe815b9b3e8269a6U,
  0xbe444588bccd0fd3U, 0x3cc1a449bcf6db5bU, 0xbe9339ee3d9923a4U, 0x3d1c8ace3c37589eU,
  0xbd5d122a3e567cf3U, 0xbdec9f163da421eeU, 0xbd94445ebcf95a88U, 0xbe5502583e8f0c5cU,
  0xbe56ef483c4f55a5U, 0x3e260acdbe78803fU, 0x3d8915f1be7ee821U, 0x3e31b1ddbd64d5d9U,
  0xb9c2c9453c12eb88U, 0x3e8e6425be4af343U, 0xbbae12693d2ed5a2U, 0x3d78e8893dba2d60U,
  0x3dc0b3313e349b04U, 0x3ea1d0aabe6d400fU, 0x3d5343393e37c658U, 0x3e62a1463ea68903U,
  0xbe8c25803ebd7983U, 0xbdd1e5f1be2b8924U, 0xbce38c023deb6c11U, 0xbe3a9ad8be480185U,
  0x3c988f82bf21f326U, 0x3d6e3844bc5dfa99U, 0x3da91f5c3e052a1eU, 0x3e80262bbe01ff3fU,
  0xbe0672603e4aac42U, 0x3d0f1feabe6b8e72U, 0x3e1cf796be4981d5U, 0xbc0e4c23bd8371ddU,
  0x3da30f853e47593aU, 0x3cf45b7dbeaaacf4U, 0x3dbe8f76be2116d6U, 0x3df296c53c360e20U,
  0x3e1722ae3e42283aU, 0x3eb99fd5be696b48U, 0xbe9aca6abd31726cU, 0x3d107bf0be740d00U,
  0xbd4d60b3be16951fU, 0x3e24f8093ee596beU, 0x3d62b383bdd8eba6U, 0x3d64b53bbe94c58dU,
  0x3ca91aa23df32eb6U, 0xbd920abcbe1dc2a5U, 0x3e03c5c2bd54bb9eU, 0x3d9fd8ac3f0e81cfU,
  0xbec6375abbc2e266U, 0x3d918654be1d3732U, 0x3e202d593c5da193U, 0xbcc6f8993de3fe56U,
  0x3da9ed60be8cb72eU, 0xbb09847a3ebc322aU, 0xbd9b7e243d0bf33dU, 0xbd05be0fbe4b8c75U,
  0xbda4d0b83c1f80bdU, 0xbc6cccdfbedd7c37U, 0xbd361ecb3e55e08bU, 0xbeecdef9be084d75U,
  0x3e90afe4beb33ebcU, 0xbd9bff0b3e82db04U, 0xbd4e98683e8220fbU, 0xbe25cb35bea36eb4U,
  0x3efaae6dbd12e980U, 0x3ee91d59bee56722U, 0xbe159e96bd4481f2U, 0xbe54409a3ca8fa09U,
  0x3da0d56cbe01722aU, 0xbc434c36bd92df25U, 0xbdc999173e6b255cU, 0x3ea4ea62bea31e18U,
  0xbcf3d758be13cd7aU, 0xbd827b06beeb9da3U, 0x3ebc5a1fbbf21719U, 0xbec2d2b73e9c5e9bU,
  0xbea405223e0f9c44U, 0x3da9a8293d80afa4U, 0xbe8c68f23de88d74U, 0xbea370c1be928a72U,
  0x3e5fcd04bf7d3a1fU, 0xbe82da4ebe8f2329U, 0xbdd5dbbc3b02cfe7U, 0xbeacac5dbeb13d17U,
  0x3e765e153ecda236U, 0x3dbe1c8ebda48074U, 0x3da8240e3e483952U, 0x3d1692d63e74a715U,
  0xbe2189bd3ed54425U, 0xbe056217be0cf43fU, 0xbe309a4f3cba5d3cU, 0xbe9ed5773e1ca1f7U,
  0x3e2fbe613e578b2fU, 0xbc2f678abe5a3b13U, 0xbd7550313e8db31fU, 0x3e306b71be75ce6bU,
  0xbdc3c697beb96de9U, 0x3d6520da3e6972f6U, 0x3e0830493ebf58f1U, 0xbe10c1a83e4a8497U,
  0x3e17eeec3cf013ceU, 0x3d5935bfbd02bd74U, 0x3dceec68be9f49a5U, 0x3ec4e1233e93ce8eU,
  0xbe269463bddc3b62U, 0xbd3014bebeec5c84U, 0xbe81d8e73e5fb1f9U, 0x3e4e28a03e8c367eU,
  0x3e1d30ebbdaa2945U, 0x3d9c185cbec3c475U, 0xbe0770e43e88e83fU, 0x3e230c80be9f7355U,
  0x3f20fb823cf6da4cU, 0xbe4869c73e3e63e8U, 0x3e42044dbea1f9cdU, 0x3e489f323df42ed3U,
  0xbc69fac73f036b59U, 0x3e112af6bdb03f97U, 0xbe591cabbdea87c6U, 0x3c5d394c3e21d288U,
  0xbd76d8c33e42fd6cU, 0x3d19778e3e0af7e9U, 0x3da70af03e242142U, 0x3dfe4e003e08c84aU,
  0x3dd0fac43ca9a9e4U, 0xbe6abbcabe5331a3U, 0x3da935f8bdd65b7fU, 0xbb9532c03e3aca37U,
  0xbe4198a23d0feb96U, 0xbda3d084bdd756e3U, 0xbe0506e33e3f157aU, 0xbe623c5c3cab5444U,
  0xbe950fe3bd4a1ac0U, 0xbe725b04bb581e60U, 0x3e2582ae39cbb765U, 0xbe492a8c3e8aec39U,
  0xbe1d918a3cc355f9U, 0x3d014554bba555efU, 0x3d15b72bbca8a171U, 0x3d7545863d567b43U,
  0x3ded8769bd493a5dU, 0x3e534e133dc46c78U, 0x3ea3da223a6e4784U, 0x3d30a1b73e0a87b3U,
  0xbeb571b2be8a2520U, 0x3e5c50f5bda94133U, 0xbcfb44b23cf2a4d5U, 0x3db30b813eb03c3cU,
  0x3b897eed3dba0adcU, 0xbc8d7852bee25fa2U, 0x3d28ed0ebced420dU, 0xbd9f6f78bec5974bU,
  0x3dd0e2b4bb739db9U, 0xbdac2b8dbc43797bU, 0x3e1126d1bb83536aU, 0xbd811315be26ca8bU,
  0xbd748c2abdf65339U, 0x3d9cd172bdf28453U, 0x3e788f34be280310U, 0x3d879f06bd548b14U,
  0xbdb04264bdfc9318U, 0x3d5db442bdbc0687U, 0x3d7339c13e11fe12U, 0xbc80a6b43c153c8fU,
  0xbce96878bd355a91U, 0x3e1b563b3dae2510U, 0xbeb2e01d3de683adU, 0x3cfa3fe13e29d97eU,
  0xbd96fb133dbef68dU, 0x3dcbbd76bd9a2af4U, 0xbe08a9f4bd8b9867U, 0xbd98dc8bbd80edb9U,
  0xbe098fd33e26a4d3U, 0x3d92f90b3e77e078U, 0x3e489ca83db6a53fU, 0x3d39b0d1bd45fc13U,
  0xbe3b0c78bc89277bU, 0x3e382486be81acd1U, 0xbd4ebbe13c8f6138U, 0xbe5e48a23e38e8bdU,
  0x3dab55433f6db130U, 0xbe0b8b53bd662872U, 0xbef3f5973cae93deU, 0xbd613f94bd982603U,
  0xbdf076e13eb3aecbU, 0x3e2603713d357249U, 0xbe83cbadbefab7bfU, 0xbc7e0a6cbde3e86aU,
  0x3d6994d73dfdb32aU, 0xbc82c87ebd66f5b6U, 0x3cf9c8d43e8324b7U, 0xbf0235093e2eb169U,
  0xbc002d14bdc37d4aU, 0x3b4bcd4a3eabe495U, 0xbeebe2443e65c766U, 0xbedaf6ea3c913542U,
  0xbdeee6fc3dab6373U, 0x3dae92893e1255c7U, 0x3d631aa4bd47a491U, 0xbd316ea23df589b6U,
  0x3e0d87a4be0aa8bdU, 0xbe6c0ecbbf7cb1f7U, 0x3e3546a1bf026681U, 0x3f1b5f21be5ef6c3U,
  0x3d31cb7abe04fc6aU, 0x3f52131cbe1232ddU, 0xbe517c773e89c31dU, 0xbdade165bf17a763U,
  0xbebe17293d940d8bU, 0x3e343d6abd97a2a4U, 0xbe93fb6dbd0d3eb5U, 0xbcd0d41abde4eaafU,
  0x3e926527bef3e26fU, 0x3e032eacbc19a3eeU, 0xbeb64a65bc9fee72U, 0xbeac5a70be46045cU,
  0x3ea2a119bdb28bf4U, 0xbe7e228ebe2ba380U, 0x3d810b243c817433U, 0xbdaa0a89be887788U,
  0xbc67dfa6bd405d0dU, 0xbd695f03bf3d20b7U, 0xbdba5dce3e8f8c12U, 0xbf3d4bef3c8aa7baU,
  0x3e2193b2bdec5146U, 0xbe09dd78bed50355U, 0x3e28d4db3e5565f5U, 0xbedacfb0be44e231U,
  0xbdc189b6be4ead8dU, 0xbf5f7223bd9cdba1U, 0xbe67b8cf3e3ac6bbU, 0xbe8cc2dc3db5b26bU,
  0xbe9f37d3be93b949U, 0xbe0017963e9bd51cU, 0x3df49cc5bf413b22U, 0x3e9a8d493d6ede90U,
  0x3daba9f1bf5bae59U, 0x3d3959a03d07b339U, 0xbe2f03a63e6caed3U, 0x3e8ca7bdbe9439e0U,
  0x3cb896a13e60afe1U, 0xbf4505de3e76b401U, 0xbe1194ef3d864920U, 0x3e1b57a9beb9f22cU,
  0xbf0eb3e4bf0d1337U, 0xbe6a6e8f3ead71e7U, 0xbe77ec623e4d4e32U, 0xbf1e27333e0f60ecU,
  0xbbc162553e82132fU, 0xbe0d234f3d17c734U, 0x3d2d651c3d6c228fU, 0x3d02292a3e1ab5eeU,
  0x3f3f768f3dea44e3U, 0xbd13d1ee3db73539U, 0xbda8448f3cc6950bU, 0x3e08e3d93d2c26e4U,
  0xbdae7e16bf343191U, 0x3e691543bd431784U, 0xbe786c42bd2e4495U, 0x3e319739be9aa583U,
  0x3ef6bd7cbe8979bcU, 0x3f22c1a33e71cce2U, 0xbd5e7f1c3e989d8bU, 0xbd2ed242bd3a6ba9U,
  0xbda5cfd2bef818f7U, 0xbea95a993dfe4055U, 0xbeaeaea53e6fb2c2U, 0xbe5fba50bd9ad36cU,
  0x3d5ef7a1be09ea81U, 0x3dc5d3a83d40aa0aU, 0xbe23bf0cbf15b306U, 0xbdca21e4bb9fb1daU,
  0x3f0f47e3bd33de1eU, 0x3d5cc0ee3cadbd4dU, 0xbfbfd2093ede55b4U, 0xbe678eb0bf1b0fceU,
  0x3e8573b6becbe46eU, 0xbe9440b2be89afd0U, 0xbe8406803e011380U, 0x3e6842ea3f45e076U,
  0x3e8ab4dc3d5f3b67U, 0xbe3bcc7abc310b6bU, 0x3ecbba3f3dbf2fbfU, 0xbedfc6e83ec4d07cU,
  0x3d85bdabbe71d91bU, 0xbe6e48fc3e10a283U, 0x3cb8d9723e2f413cU, 0xbda38d30bd96e43eU,
  0x3d5e4e883af0a640U, 0xbeb2a08a3efbb1c0U, 0xbe3c88393de76b39U, 0x3ec4b0bc3ca1b5b7U,
  0x3f01188bbdf1e8d3U, 0xbe0b05793d596011U, 0xbe8a16a5be256b2eU, 0xbe318713be1eb8b2U,
  0xbd1fbaccbef108daU, 0xbe22de583de2b7feU, 0xbee8e9273be3f07eU, 0xbec231683dd7b1ddU,
  0xbe738f663dcaa4c6U, 0x3ec815073e8d833aU, 0x3e6287593c6f18d8U, 0x3dec12c33ceb16d8U,
  0x3cfa75ca3e733d7dU, 0xbeced7983e8eea00U, 0xbefab28ebe96faecU, 0xbdf75062be662992U,
  0xbe3010323f41a4d5U, 0x3e8924573dd226e0U, 0x3f3512883d2ae7cbU, 0xbf4d34063e79c679U,
  0xbecfe8d8be09e7c1U, 0xbeff8918bb79a5a9U, 0x3e381c7d3e798266U, 0x3e35b3323d222d9bU,
  0xbd1361aa3d9030b8U, 0xbf1af4b3bea2d8fbU, 0xbe9d2744bdeb1351U, 0x3de50c9e3e05a803U,
  0xbe9a39b93e8194edU, 0xbe0d99183cdb80f4U, 0x3ba687713cb0f6d0U, 0xbe849bae3e18bae1U,
  0xbf1ed2d9bd1d9c4eU, 0x3e1a59c9bebd6d8dU, 0x3d80de87be530ce0U, 0x3c726a433dda9489U,
  0xbc554a42be604bb6U, 0x3f3bad463e26e40bU, 0xbd04efbe3d02e752U, 0xbdad464b3e14fa29U,
  0xbe2610aebd863e5aU, 0x3e1f2a0fbe916275U, 0xbcddcb073db235fdU, 0x3dff42a6bcb86b98U,
  0x3ef2adbbbe1bed4aU, 0x3dc791183cca0d68U, 0x3e94c8c7beb83c0bU, 0x3c1bc8963e257a7dU,
  0xbe31eb0ebd29912aU, 0xbea7e528be87a29dU, 0x3e32f514bf5197e4U, 0xbe555a053e63ebb6U,
  0x3e7448353e28fbacU, 0x3ee580f0bbbadd95U, 0x3dae8ea7bd93a1f2U, 0xbd2ccbe5be2191eeU,
  0x3e4e6fc63dbe0ebbU, 0x3e8f248e3cd9a7d9U, 0x3ecd1ae8be3c38daU, 0x3e1da2c8bd2792caU,
  0xbe891dfe3e217e74U, 0xbf821f6ebf15e9b4U, 0xbe48d285bebdaa72U, 0xbcf3fccfbef2beacU,
  0xbe56d7eb3e519c16U, 0x3dfb27823e615ba7U, 0xbea1c784bcce7189U, 0x3e0e9456bd2b83c4U,
  0x3df70dd1bee33f79U, 0x3e9b6feebdabbe14U, 0x3e4facfebfa1936aU, 0x3e5a99b9bde03dddU,
  0x3ca4f74abe60ea7bU, 0x3da9d0dc3d8cf948U, 0xbe2f40fc3eb8a41fU, 0xbd9d99973df2f461U,
  0xbd17be28bf068479U, 0x3d5a7069be8a9b7eU, 0x3f074884be0f117cU, 0x3df8d8a2be24bc00U,
  0x3e21edadbe2e58afU, 0xbe7edfb5bea9ce0fU, 0xbd139019be957174U, 0xbd893ed93e908ddeU,
  0xbd9e76553da5cbd7U, 0x3dcaaec6bf5020a0U, 0xbec319a03dabb219U, 0xbfbdfcc8be82e736U,
  0xbcc65ecbbf350acdU, 0x3da2be9e3f1b85b6U, 0xbd8123943d8815c6U, 0xbee562ac3e60ec42U,
  0x3f022057bed68bf7U, 0xbe63546ebdbbacffU, 0xbf2038ad3d9e1d52U, 0xbeab76623e2fad2bU,
  0xbe0bf3acbf24d671U, 0xbd15644d3dcc4809U, 0x3dc580133f1df102U, 0x3ed69dea3dc116c4U,
  0xbf1b99a1bd586c41U, 0xbca7a2dc3eede5f1U, 0x3ed02827bce6b154U, 0x3b384d68bf84fdd1U,
  0xbf1946c5bd23c91cU, 0xbdf060e53e4e744fU, 0x3d6699713dbb01dbU, 0xbf4a5da73df16401U,
  0xbe7c7a5fbfbcda70U, 0x3d10916ebdf38f3fU, 0xbe9abf98bd5a7941U, 0x3e1d4426be631d02U,
  0x3ef7fc093eb2d0dcU, 0x3d3cbab7beadb6a9U, 0x3e7aae193e6ce065U, 0xbec223cbbe002471U,
  0xbe2c8d5e3e411037U, 0x3e0aae593ec6083eU, 0x3e3e0adcbf442d09U, 0xbed12f70bc8642c9U,
  0x3e73ab583dc359ccU, 0x3e98479bbef0e5d8U, 0xbdf5686f3eedcff6U, 0xbd8a8d4fbee27685U,
  0xbca22378bee2f162U, 0xbd06ca503dde33b0U, 0xbe08e6c1be14f623U, 0xbe3adde23e1d9380U,
  0x3f10ea7a3e0f4bdcU, 0xbf4c00933be43833U, 0x3f3a61b2bef3cbe9U, 0x3f3a4f583e4c02cbU,
  0xbd939a683d1b720bU, 0xbdd8daacbf189ec9U, 0xbef9a1ec3df70e71U, 0x3e2b5adabdfa3098U,
  0x3f034fac3d8ee6c2U, 0xbe50dba1bf081fc1U, 0x3e2f68b73edae30aU, 0xbd833a2fbebc5379U,
  0x3f1256663d3c227cU, 0xbeb708f83f1693c8U, 0xbd13888ebf0254b2U, 0x3e163054bdb3c4f2U,
  0x3e5a58213eaf896eU, 0xbde7d7efbda12bcdU, 0xbea262803d71663bU, 0xbd1f0e183ca2b753U,
  0xbd4145ce3c75cd7eU, 0xbe159fdfbe3df842U, 0x3da985ad3da7f773U, 0xbb4ee4633df588caU,
  0x3e42bf473e7e5b49U, 0x3d532aadbd0a826aU, 0x3ce75f453d69ace0U, 0xbdfd7475be306f5dU,
  0x3c72d6c4be8c11dbU, 0x3d1f111a3dc366d6U, 0x3bcfb7583e2ac6abU, 0xbdf893303ddcf16aU,
  0xbea90cafbd5901baU, 0x3ec18d363e324cafU, 0xbc8022eebdc28fd7U, 0xbdbd48433d92b120U,
  0x3cd918fe3e0aeaeaU, 0xbc8345b5be0b2287U, 0x3dbd5972be1e8bfaU, 0x3e4f3f863c80ff56U,
  0xbb36a53ebda83e6aU, 0x3e8a1ed5bc438cfaU, 0x3d2e5fb93ec0d7f5U, 0x3da3df4d3e8f8ce9U,
  0x3e5c1e12be98b9d5U, 0x3e5c2231bdda3a0fU, 0xbe283357bdc09a72U, 0x3d8fd0a3be236a7fU,
  0x3cc999df3ca74577U, 0x3e33382fbd96c6dfU, 0x3e8240a7bd006b06U, 0xbed7c53abeb3256fU,
  0x3e3379cb3db427b3U, 0x3e595af33d392dd4U, 0x3df232bb3e9eee24U, 0x3e1b0362be1cd535U,
  0xbc75b556be852ba2U, 0x3e2357fcbbf3056dU, 0x3e2cea6abde147a3U, 0xbe08e0b4bc5fbb99U,
  0xbd9f957ebd513328U, 0x3d9a36b5bcf412ffU, 0x3d90c12e3dcec402U, 0xbeb8c0e0bec68460U,
  0xbdd0b1663a4138f1U, 0xbe0b2837be03a381U, 0xbe9c91973e0226aeU, 0xbe120dff3e148e63U,
  0xbe29ac9ebb041558U, 0x3db799af3e3a8124U, 0x3c8939a9bead57a9U, 0x3dd66874bdad8bf0U,
  0xbc4052cfbd1afc14U, 0xbed824a83d59433cU, 0x3e3bfb27bc96c067U, 0x3e86443a3ed2fce1U,
  0xbe8eb60cbe6b88fcU, 0xbcb1f435bcd3975fU, 0x3d8128103dc1e0f9U, 0xbe98be3dbe0c30b4U,
  0x3d624ffd3da5b5efU, 0x3e12a47ebcafcb56U, 0xbe04daefbdb0c5ceU, 0xbc93a608bd0bcfa6U,
  0x3e4c8184bdf895ddU, 0xbceeae3c3d33111bU, 0x3dbfcc1ebe1daf3fU, 0x3e4f72f9bdcd5931U,
  0x3e39d1843e364a43U, 0x3cbf86f03d5c83d5U, 0x3de0bd9ebe30e30fU, 0xbded5ca53d0ef654U,
  0xbd1e554cbd9b03e0U, 0x3db12aae3df8219eU, 0xbd787dc53e12bd60U, 0xbdc1d9ff3e31969bU,
  0xbc07d7c5bd1fadd0U, 0xbe24ae153e28c935U, 0x3e08e146bd3f3ce2U, 0xbe15b8f03d49b46fU,
  0xbd40e8aa3c52caf6U, 0x3e804776be150717U, 0x3b2a124bbd65325cU, 0x3d4ce9febdc1df2cU,
  0x3e1189473c4128b2U, 0xbcaffc13bd1654f1U, 0x3e27f2c93e187dd1U, 0x3cc64501bce389eeU,
  0x3e25302c3bf1749cU, 0x3c2301d63e134103U, 0xbd8a22eabdf540e3U, 0x3e0bbfe63e73f7ceU,
  0xbe78bd153cba4666U, 0x3be46cb5be88e325U, 0x3dce8e9dbd0f50cfU, 0xbe090854bc45a8b3U,
  0xbd4c86f93d345345U, 0xbe336d463e1aefeeU, 0xbd856e45bd8e7489U, 0x3e153035be58faaeU,
  0xbd95a4e33dfe6ba3U, 0x3e41dfc03c9988c0U, 0x3e6889adbd623167U, 0x3d934437be32890cU,
  0x3dbe286e3e3b7a36U, 0x3e1df4833d23fa5dU, 0x3df3e40b3e13b78cU, 0xbda7029ebe19e115U,
  0xbe5b6dee3d202fcdU, 0x3db2dcc0bc9981eaU, 0xbcf08aabbc8e0799U, 0x3cc030bbbdb02846U,
  0xbda6620cbcc2c9f1U, 0x3e051adbbdb202f6U, 0xbd8dcf50bde42c38U, 0x3de9a6603ccf1c4aU,
  0x3d9dd506bd6d63acU, 0x3cddc5813d749c7bU, 0x3db9b23c3db33043U, 0x3de42fb93ef94f05U,
  0xbd8ccbd83e166806U, 0xbe15bedcbe0305afU, 0xbd2bde723dba00edU, 0x3d16a7343d38fd23U,
  0x3d093d7ebead4bdeU, 0xbe81fb963e664ee0U, 0x3dda4755bd8fd334U, 0x3e1cb1c6be3ec2d3U,
  0xbc532a5cbd04da4bU, 0x3e590835be3d11dfU, 0xbe406a3f3ddae5e1U, 0xbeca83d8bd8eafa4U,
  0xb8ba09fbbde85302U, 0x3cd59a043dfcf9edU, 0x3e3ec3373e0eaaefU, 0xbe81371ebec6af71U,
  0x3eed941ebe07410dU, 0x3eed940dbe3e3e7fU, 0xbe1f2b2bbddf3844U, 0xbee1ed97be815badU,
  0x3a7858e5be9534fcU, 0x3e15a8253da59e44U, 0xbe5032ee3ec7990aU, 0x3e9de65ebba912c8U,
  0xbee6d0203d09766eU, 0xbd4d9151bf5fb833U, 0x3e8303e13ef9ebebU, 0xbd93a64dbedad752U,
  0xbee31698bcdf62f3U, 0x3c44f6793dc0b82dU, 0xbe7dbab73e673ccbU, 0xbebe4699be9ee96bU,
  0x3cca5145bf8d3edcU, 0xbe264c3abe7404c7U, 0xbc41d553be2ac6bbU, 0xbdfd5bdabeafb589U,
  0x3e1037873e8ddd53U, 0xbd74df87bdd301f8U, 0xbda412543e9f2ff0U, 0xbd0535ae3dc77c76U,
  0xbd2f7809bdcec299U, 0x3e0d044abe114ca4U, 0xbdba8d5c3da4da96U, 0xbeb7d9e5bc0991ddU,
  0x3ea55a40bdcc2408U, 0x3cbd531cbe202811U, 0xbe03f3703e1e07d1U, 0x3d703c5ebe4217adU,
  0x3e19e975bef4fed5U, 0x3dbc2d863d3581d8U, 0x3cfc8d433e3e1139U, 0xbd783781bb2b61b1U,
  0x3ea768c73d85512dU, 0xbead16ed3d5d5ab6U, 0xbd0ae279beb8eddeU, 0x3e0100443de01470U,
  0x3d2d0d723e00f281U, 0x3e3dc630be96a86dU, 0xbf033f823e46f8ecU, 0x3e14018f3e15be79U,
  0x3e5c14eebdc484acU, 0x3e1f0b74be9b56a2U, 0x3c9ff8fc3eb3d017U, 0xbd81f01bbe7e1e95U,
  0x3e0b99e73e609683U, 0xbebc54aa3de4363cU, 0x3e55d8c0be322b4aU, 0x3e2e88813cdb5480U,
  0x3d39bbb43eae7451U, 0x3dff7cc7be85fadfU, 0xbd37a765bd761f4eU, 0x3da6c40d3d25c3efU,
  0x3c83b0cebdfc7e5bU, 0xbd72e9ef3d08b840U, 0xbe30d012bdaf8279U, 0x3e22ff443df71b16U,
  0x3e0d438b3e69523cU, 0xbbcf0c18be3a5434U, 0x3df64aa7bd6ae924U, 0xbd5192523ba27e37U,
  0x3b24208a3d8612a4U, 0xbe382cc23dde3654U, 0xbb4a63b53dfeec43U, 0x3e19c6873d92f504U,
  0xbe5e84eabe130ff9U, 0x3e4860493d87a1bfU, 0x3dbfb6b63d14a739U, 0xbea77b4b3eb48bb7U,
  0x3c6b2eaebe1d3082U, 0x3de2b32abe33f0e4U, 0xbc1e164cbdffaaf5U, 0x3d24f97f3d4df4a6U,
  0x3d8d38c03c6f15c3U, 0xbd864b86bd8a8750U, 0x3d9e4c363e531b29U, 0x3dea6274bcddee4eU,
  0x3d3feedcbdfa77c6U, 0x3e00273dbd8e8db4U, 0x3dc283d13e089f7eU, 0xbdc71f063dd68648U,
  0xbd2f84183e0fddbcU, 0x3dc149b1be2c6dbeU, 0xbcf4cab2bdf69f22U, 0xbe0ed45b3d7f655eU,
  0x3d892284b99c63e3U, 0x3e358c62be0c3369U, 0x3e3db4d73e669c2dU, 0x3df7c7b5be8fcef9U,
  0x3d5381d43cad6594U, 0x3d8ece2ebd8b635dU, 0x3e77edecbe2f1a22U, 0x3d2af48cbc6a7ce9U,
  0xbdae55043ddd0288U, 0x3e030ac5bd48b418U, 0xbcd59b533c26eccdU, 0xbd5b019e3e15bf67U,
  0xbc1456363bb4f634U, 0x3e037ed1be215f96U, 0xbe665f073e2af6d1U, 0xbe58b1823c887c55U,
  0xbe0272b63d52b142U, 0xbdb276ca3e58bb9cU, 0xbdc7b68cbe4a287aU, 0x3e04c0dabdfb4e89U,
  0xbddb5faa3ce14456U, 0xbe642db03d84db58U, 0x3e08244a3d76d729U, 0xbd20ebee3f1125ccU,
  0xbe9053c5be01c375U, 0x3e3c19debe58b443U, 0xba981b943cd60454U, 0x3e021ef23d0ef924U,
  0xbb07dfb7be58c234U, 0xbc4fe5833e38e1b3U, 0x3e53b268be4d3491U, 0x3dc482df3dabc7eeU,
  0xbda8cd4abc751117U, 0xbdfc31e13e11ff2dU, 0x3daef59d3e158403U, 0xbeefc3e3be61c730U,
  0x3e1bfca4bd78bfeaU, 0x3dbed5f23d1230f8U, 0xbe5eb7c83af8ac2aU, 0x3dd4bb66be8b7851U,
  0x3e8aff953e27d704U, 0xbbc0c3c4be5316a5U, 0x3ea3b9783df4ec45U, 0x3e570e1bbca10d4cU,
  0xbdb73e493e1325a7U, 0xbe226c13bbe13b68U, 0xbd48561b3e687129U, 0x3d58910bbdbc028aU,
  0x3e5991d63d60d7b0U, 0xbccd25b53e04b209U, 0x3c420de63db29dc1U, 0xbe666b223d9ecb4cU,
  0xbebbf785bc606e38U, 0xbe2138973d8179c4U, 0xbe47f56bbc177962U, 0xbca4fd46be1672a9U,
  0xbdf890ca3e221e79U, 0x3d5faeb43df9130aU, 0x3c260f423dae95b1U, 0x3d5bc141be22a1beU,
  0x3e54a2dabc8df5cdU, 0xbdc506cc3e1f6570U, 0xbddf52ba3e35a88fU, 0x3e3e08b83e3f6cd7U,
  0xbe383641bdbb5c06U, 0x3deb85c23da2876dU, 0x3c1cd47dbe88d3f5U, 0x3a065dba3e8c3d68U,
  0xbd9b40053e3b2698U, 0x3c0a9edf3dcaeadeU, 0x3dc9ce3dbe056622U, 0xbe0ba69f3e3469ebU,
  0x3d840019be49929aU, 0xbb6fb1e03e870b86U, 0xbd9d41c9bddfbd6cU, 0x3dd21bd83d6d58a7U,
  0x3e2c1ad6bd461efbU, 0xbea7256e3eb22c61U, 0x3e8422b83e01a795U, 0x3cea0b673e714632U,
  0x3df5b199bd9667aeU, 0x3e25d148be8be650U, 0xbcf70e3b3da38bb2U, 0xbd4f2f48bf055c9dU,
  0x3e88d2d23cc96beeU, 0x3e47dfd6be7e14e1U, 0xbc41f1c5bd1e859eU, 0x3e07278cbf1a95d9U,
  0x3ed37e413e225591U, 0x3e4c280f3e5f0e28U, 0xbdcdfb6dbd1cd80aU, 0x3e5762883e48dfeeU,
  0xbd93220dbf06fc73U, 0x3e5ee26e3e0e30a8U, 0x3dd0d825bdfdb982U, 0xbe7a3e233d8d8655U,
  0x3da7c727be292830U, 0xbe2cca073dcec6e4U, 0xbda454a93c76e20eU, 0x3e0a44c83dcbe243U,
  0x3e001a973e76a536U, 0x3e1c425b3e0770eaU, 0xbe516977bdf1e8a3U, 0x3c2922efbe2cc280U,
  0xbd2bd55f3df86788U, 0x3c1e4340bd8a15e0U, 0x3d848fb73e40a902U, 0x3e80eb18bde39234U,
  0x3e9a10e63d89e2bbU, 0xbf4112a83df906dfU, 0x3d202a103d49f88eU, 0xbd822fc6beb61dfaU,
  0x3bb160e73d9f1992U, 0xbe31337cbd0cd968U, 0xbc029b543ddac23dU, 0xbe06aa01bd40fa2bU,
  0x3e7a83d43d46add4U, 0xbe6072c7bcf9a433U, 0xbe132e2cbe6d7541U, 0x3d71bb85bd1b4a7bU,
  0x3c6bb33e3d60b550U, 0xbe2b15e93e6433a2U, 0x3d9fb52d3e3cf69bU, 0x3da6c41cbc6b4198U,
  0xbd8dcd81beac40c7U, 0x3d9c8b453e3eddedU, 0xbe9c46493d7102edU, 0x3eb194653d55d600U,
  0x3cf228993d7a5c72U, 0xbe9b79b43e4990efU, 0x3d0de6e3bdbf4116U, 0xbd93e5283efab5d3U,
  0xbce13f753da82509U, 0xbe18120c3e774e1bU, 0xbdf08bc1bd36ae36U, 0xbd90607f3e81a9ebU,
  0x3cc622fb3d7f2c42U, 0xbdde3b2f3bed4394U, 0x3d7d551fbeb4114aU, 0x3e4546393e5b4e2bU,
  0xbcebfce7bdeac6bbU, 0xbe072ae13e55d95aU, 0xbd44a11c3c16d8f4U, 0xbdd76290be11454dU,
  0x3e80cb20bdfd74a8U, 0xbd2f3df0bdef65a6U, 0x3d0f49ecbe352f6dU, 0xbe04e7963e692babU,
  0x3e2c732bbe45fd3aU, 0x3e22aad4bdc6793aU, 0x3ddf30be3c3daa3aU, 0xbc9a4871bf06e8d9U,
  0x3e0898f13d887f62U, 0xbd5b17323e8f2eeaU, 0xbe237c1fbba6fdd0U, 0xbe3d24d7bd8ec608U,
  0x3e6dae0b3ef9d4f9U, 0xbcbecc273e4365e5U, 0xbf0264e2bdd9833eU, 0xbbfaf0debce504e5U,
  0xbdd8c864be7d6574U, 0xbd273a17be4ac8a2U, 0xbd1bd3c7bddf41c5U, 0xbd3b888cbe90cd2dU,
  0x3e85a90dbc9f985aU, 0x3d6eec963dd464d5U, 0x3e8011c53e39940cU, 0xbe90c8003dc8008bU,
  0x3d93e947be71e2b1U, 0x3e7499df3d8d7c83U, 0xbda51d733d03f267U, 0xbdfa6cd63ceef57aU,
  0xbdd3fb89bd0b1566U, 0x3f414da23d9df074U, 0x3e4f5740bcbc81d1U, 0xbd823a0f3e2bce77U,
  0xbe0453ab3daaffdcU, 0xbe578c81bda26965U, 0x3d8ec5a0be90ac2dU, 0x3e42cc6bbdc93b84U,
  0xbe2291283e557c61U, 0x3e5816a43e3c0d6fU, 0xbe097de23e74502eU, 0xbdaedb9c3e24a82dU,
  0x3e645231be377c10U, 0x3e53b794bda68187U, 0xbe48634b3e0bcd70U, 0x3eb093c0be094348U,
  0xbee909773eca448aU, 0x3de8cf86beaa0c91U, 0xbdb6023e3c96be3cU, 0xbe47fe8fbe564332U,
  0x3e5806b3bea0ecfbU, 0xbd19a1373e61acbfU, 0x3e408da83c5371aaU, 0x3e4f84b8bdf57e62U,
  0x3e18f460bef5431aU, 0x3e76eefdbebafa69U, 0x3dd098563c9f6841U, 0x3d09a6373e1bde3dU,
  0xbb254a98bba96debU, 0xbd4ee0a13ea016c5U, 0x3da38a1c3f080199U, 0xbf1d0975beb4e20bU,
  0xbdbf0027bd7abbb1U, 0x3e1c9715bdc003e3U, 0xbe96eadfbd394085U, 0xbe5f93eb3cbd5b63U,
  0xbe13c8cebdb9df10U, 0xbda71aaabe572455U, 0x3d78febe3d55588dU, 0xbdc7b7953e909831U,
  0x3e6109063d82fefeU, 0xbd5e0691bbfad2feU, 0x3e782e693d8e271eU, 0x3e82afda3e88d369U,
  0xbe0a4e0cbed95b33U, 0xbe05ac30bcb6f2ccU, 0x3c579d14bd8a064fU, 0xbe8ece4cbea727d3U,
  0xbe24fcedbeab3975U, 0x3d9987603e9f3ce7U, 0xbe8de46dbdb30960U, 0x3dda56483dc4e21fU,
  0xbe4ba7403da24847U, 0xbe7862343e191a6eU, 0xbdfae768bd7c52f8U, 0xbd8c0950bdc5d4faU,
  0xbc7ae5db3d9af41bU, 0xbe94ec5bbe773426U, 0x3dfa01fbbe14a994U, 0x3df07a793d5254b3U,
  0xbd5c87de3e9c1e06U, 0x3d741be1bd677e50U, 0x3cca144b3d91b43cU, 0x3db88af63e8c5e1eU,
  0x3cf749c6bd88dd76U, 0x3d463c213d3d9df8U, 0xbdb9a586becf1d47U, 0xbe367b083e734855U,
  0xbd91fd4ebea7f7a6U, 0xbdd47e3c3e11e472U, 0x3eba652fbe0ffbc5U, 0xbe12a232bd09ef65U,
  0x3dd347e53dcb9fbdU, 0x3ea323c93d9fcbceU, 0x3d8eacaf3eb127e2U, 0x3e278a2abe51e735U,
  0xbf05aba53d3e2318U, 0x3ddb73023d209b49U, 0xbf1b03b2bee4caf6U, 0x3e31c5aabddb5f15U,
  0x3e3ebbb63ec02eccU, 0x3da5dcfd3e6f1d9cU, 0x3e7ade65bf61cf4bU, 0xbf1976d1be18dde3U,
  0xbdbd721bbe571113U, 0x3ef89ad43deb791bU, 0xbea4821f3e6d271dU, 0xbc03228dbec6ce73U,
  0xbc8d56793de8120cU, 0xbcd2624ebdf35bcfU, 0xbdc5327cbc33f258U, 0x391e65d53ca9df6dU,
  0xbe9903cf3d88df7dU, 0xbe86a954bdd8bb1cU, 0x3c25bbf4be28f859U, 0x3e62c511be22164aU,
  0x3de91b90be62253bU, 0x3dea3d813d9163c0U, 0xbf4a7f4f3d95bb1dU, 0x3c2e66373d508062U,
  0xbc82ceb93d90770bU, 0xbd68d436bd04640bU, 0xbe5659583ba934baU, 0x3da843cbbe2790ccU,
  0xbd871ce53e53d6ffU, 0xbe90234abe589047U, 0x3e110c07bc76ad2eU, 0x3ceb4de43f119975U,
  0x3ce69b96bee4cb06U, 0xbd275243becee36eU, 0xbde7a4aabe42e40aU, 0xbd5b4b693dacb294U,
  0x300000000U, 0x0U, 0x80000000U, 0x801d378e00000000U,
  0x0U, 0x121b9d000001fbU, 0x20280282a87U, 0x8000039b00000000U,
  0x8014be6480000000U, 0x8000000080000000U, 0x8000000880000000U, 0x8000000000000000U,
  0xecf6f00000000U, 0x80000000U, 0x805c545e00000165U, 0x800000008000a652U,
  0x0U, 0x80000000U, 0x8000009800000000U, 0x8000000080000000U,
  0x8000414b00000000U, 0x8000000080000000U, 0x8000000080000000U, 0x81634b1200000000U,
  0x80000000U, 0x80000000U, 0x8000429500000000U, 0x8000000000000092U,
  0x805bcd61005c5be6U, 0x0U, 0x900000000U, 0x8000000080000000U,
  0x80000000U, 0x96ae80000000U, 0x5400000000U, 0x8000000080000000U,
  0x0U, 0x8000000000000000U, 0x8000000000000399U, 0x8000000000000004U,
  0x8000000080000000U, 0x80000000U, 0x80000000U, 0x8000000000000000U,
  0x15fU, 0xab005414b0U, 0x0U, 0x8000000080000000U,
  0x8000000080000000U, 0x80000000U, 0x0U, 0x0U,
  0x172abb00000000U, 0x8000000080000000U, 0x57c66d80000000U, 0x80440a1880000000U,
  0x8000000000000000U, 0x80001c6cU, 0x7980000000U, 0x80000000U,
  0x24071e00000000U, 0x0U, 0x80000000U, 0x80000000U,
  0xbcef11853dd0d3deU, 0xbd79aabbb536e5c8U, 0xbb13dd8ebd591a53U, 0x39d82e96bd870533U,
  0xbda3a32c3c4ae5e7U, 0x3d8d3b983b9a6628U, 0xbd6f105f37b9f2c9U, 0xbca79558bd5e06d4U,
  0x3d8ff9ffbd59f2a3U, 0x3d4ff2583d9f5f78U, 0x3c8adddebd9002caU, 0xbd761fa83d0dde66U,
  0x3d7b32cfbd8ae716U, 0x3d808c91be1e6df9U, 0x3db55a9bbd8aa08cU, 0xbd96acdfbd92f29bU,
  0xbcba4cd23c402212U, 0xbd9795a43d42b7ddU, 0xbe050c923d1f1bbcU, 0x3cfdd632bdeba1ddU,
  0x3d9f4012bc31e3d1U, 0x3dd60eb73e032f35U, 0xbd40421e3a41164aU, 0x3dac9210bc9672d6U,
  0x3c1fed71bda19836U, 0x3cbc9d343cf0f304U, 0x3dd559b3bcb23470U, 0xbe252f0bbcc2bb08U,
  0x3c492d273d4ebe8bU, 0xba9eaace3c8992cfU, 0x3d148609bdad3011U, 0xbda78dd3ba483f2aU,
  0xbc779c47bddd5124U, 0xbb8de9d4bde3445aU, 0xbcde28ae3e051dc1U, 0xbd58efd8bd72102bU,
  0xbdb264ec3ddd0ad9U, 0x3dc190393db2b3a8U, 0x3d68207b3d3fe3b4U, 0xbd10972dbcb5ebccU,
  0xbd86a360bddc193bU, 0x3d03290e3dc88c13U, 0xbd1d7095bd1a5dbaU, 0x3b676979bdeccb2cU,
  0xbcaf60dabd6466c8U, 0x3c4d10573dba13cbU, 0x3d884c54bc577800U, 0xbd671628bd3bde9cU,
  0x3db91600be1aa3c6U, 0x3d724af03d04256aU, 0xbe00e133bdf04f4aU, 0xbc08c545bdd97407U,
  0x37c37b393c59360cU, 0x3d626eeabd915c63U, 0xbc3623e23ca68edbU, 0xbdd32cdcbc89bf0eU,
  0xbd92f2563d21e670U, 0x3d46cc74bb74c4a4U, 0xb794523d3e07fb81U, 0xbd583042bd8400bdU,
  0x3c55ac83b690bbc3U, 0xbc07deab3dd6bde9U, 0xbdce826abc261538U, 0x3d8f56a23d3589d0U,
  0x3d3bc448bf0846b3U, 0x3d680d41bf01c1a1U, 0xbed1f98d3e231a52U, 0xbea484b73e36d034U,
  0xbf0bf839be81ef95U, 0xbd21abbebd4ede57U, 0xbdf89e843e552e69U, 0xbd6e0faebe658222U,
  0xbe1c53bfbe2dd2b1U, 0x3afddcc03eaf018aU, 0xbd15c3243e83aba5U, 0x3e4d6c94bdaa0ecbU,
  0x3dc80234bc29451cU, 0x3dbe98b6bd158e55U, 0x3dd80a33bdeb4ea5U, 0x3e4ffc87bdd97febU,
  0x3e8a3fff3d3cc212U, 0xbfb350153d057cd0U, 0x3d898fec3e40887fU, 0x3e8209b2be5d6ec8U,
  0x3e5718003d62fba0U, 0x3cfc1d72bd90f854U, 0xbd9ab9fd3dad6a33U, 0x3dcc71b43e628274U,
  0xbdd3e0df3d76224eU, 0xbee873973ce1dc1eU, 0x3d72a5a6be375bfbU, 0xbd6343d03deb4288U,
  0xbe9264e13ead53bcU, 0xbd4e12febd474bb2U, 0x3e82a8f63dcce4c7U, 0x3e3131b33cd9facbU,
  0x3d4beb9abec6e7fbU, 0xbe8badd43ed817d7U, 0xbdfff2d0bd4a0cf4U, 0x3ec4bd21be918f53U,
  0xbe86d597bb16beaaU, 0xbe6ec53ebe227b75U, 0x3d9ee8c3bec1253dU, 0xbcc583ab3d8d4bd7U,
  0x3ccef3343ecce161U, 0xbd79d5bb3cc39297U, 0xbe7880683e017517U, 0xbe406ed3bd52ed05U,
  0x3d694ba9be92a7a6U, 0x3e20b405bc99ba1dU, 0x3cf06e17bf1d09fdU, 0x3e351cb93eddca2eU,
  0x3e22b23fbd8d5977U, 0x3d4ef6f7bc074269U, 0x3eac88d03e33c425U, 0xbc46ae073d30d9acU,
  0x3c40b37a3cad07b3U, 0x3dec6b183e5eb9b8U, 0x3d9c0a64be6c68f1U, 0xbec6aa833c4cb5e8U,
  0x3e3386103e808f85U, 0x3e5bacb7bde90279U, 0x3dda7415bc2e91eeU, 0xbe1b396abf030bf6U,
  0x3e8c558fbc98357aU, 0xbdb961593c4cda81U, 0xbdedf1d53e01a24cU, 0xbe60612c3ebc7541U,
  0x3d53404bbed6a3c1U, 0x3e3e173b3ed54515U, 0x3e4d6a0ebe269b4aU, 0x3dc01c5f3e0a0931U,
  0xbdbf5fb53e055e83U, 0xbd2b3447be03fd51U, 0x3e6119423d15197fU, 0xbf0c5680be36072aU,
  0xbbe2ba95bd3d3683U, 0x3e7f56e93e0d978fU, 0xbd76e2213e0941d3U, 0x3ea99a15bdba5339U,
  0x3f08aa913e5d33daU, 0x3e955126be9ea727U, 0x3e1639633e77700bU, 0x3e79f92bbe100eaeU,
  0x3e309628bd2451d4U, 0xbb57f0f7be1807b4U, 0x3db45da33e251efbU, 0x3d7474ddbdf16e83U,
  0x3de11881bd626fa6U, 0xbe01bdf83e276bedU, 0xbd4990fd3e7a753fU, 0xbdb2e4a13e5f9671U,
  0xbe91cfafbe24737fU, 0xba4355b53ea66962U, 0xbda977cbbe2863e2U, 0x3e4ad5ccbe24e1c5U,
  0x3d9f3e623e0a73dbU, 0xbd1722b03e3682d2U, 0xbd96df54bc6637c7U, 0xbe3355eebeb58bcbU,
  0xbbcb8a063e5e2e17U, 0x3c7d209c3ee6dbfdU, 0xbd0841a3bd7a3ac1U, 0x3e3a822b3dd5a142U,
  0xbe3d6394be67b8f9U, 0xbda86a903dfac280U, 0xbd732e01be18c04bU, 0x3e1fdbd83e1a4477U,
  0x3cd58b163e298871U, 0x3bb0ce483e8fe243U, 0xbd0d301a3dfe2294U, 0x3e35151e3e80ec19U,
  0xbddbd0e7be48d639U, 0xbde403d13e1bb627U, 0x3dd2675e3d34faeaU, 0xbdef55a83e1c3296U,
  0x3e4768ebbd597eb9U, 0xbe84eab73e3eed3eU, 0x3e16b906bc8e4214U, 0x3bccc03d3e97367eU,
  0xbe00fea5bda3f36fU, 0xbc041234bee6321fU, 0x3e7e802abdbc2341U, 0x3de9ed0cbf149b92U,
  0x3cfd6401bda31d23U, 0x3e22cbf9bf1ad0d0U, 0x3d93b25f3ddcc75fU, 0x3d82a0c8befe76c1U,
  0x3ec6ecce3defb887U, 0x3e4292f43ead40a5U, 0x3d624f473e496159U, 0x3d8c7c863cba9848U,
  0x3e6654a03e187b21U, 0x3b1a86953dacb049U, 0xbdccb764bd0f1f90U, 0xbe666270bd19d7c0U,
  0xbe925b553e5b565fU, 0x3df90317bd04c480U, 0x3e15ed26bebda820U, 0x3e4ae1a3be33df45U,
  0x3e1d50a43e2e6b25U, 0xbd5d09e6beea2cf9U, 0xbacf3a593e27f003U, 0xbe0a8dda3e37443eU,
  0xbf4017cabe4c17e5U, 0xbe319f84bd996077U, 0xbe231b713e22ee6cU, 0xbc2f89413e5a9d7fU,
  0xbf3ba9e4bdf0ecabU, 0x3f1c09fc3e167677U, 0xbe14ae4c3e22acbfU, 0xbdbc8fe23e38c1e9U,
  0xbd02f0273d882424U, 0x3d63a262bd3dcfeeU, 0x3df3bbe9bdff5e3bU, 0xbcf3bce43c9faec7U,
  0x3daf116fbd799eb0U, 0x3ea7ec0cbe81075fU, 0x3d3ee5223e376c45U, 0xbcc45633bf0817d1U,
  0x3d680b85bd16949bU, 0x3e78fbd7be1165ffU, 0x3d8039d33e6145a5U, 0x3dd327933d150ac9U,
  0x3e890f103d0c771eU, 0xbdcf0277be98cdedU, 0x3e44b78fbcb60ea2U, 0xbdc61c643d282e98U,
  0x3ddc6196be5af1c2U, 0xbed28c18bcedc8b9U, 0x3e510a093c68c3ecU, 0x3c92ebbf3da8968cU,
  0xbd957007beaee66aU, 0x3e0169a3be0c89a9U, 0x3e218329bf096923U, 0xbded8d4a3e06d5a8U,
  0xbdefb0b03dfe8fb0U, 0xbeb3e9fabe2b087bU, 0x3d3b9e8e3e39fea9U, 0xbf0e10e0bf225fa9U,
  0xbdc0a8d73e54950dU, 0x3da6bec9be1cab53U, 0xbe832e833da69e37U, 0x3c001d7c3bbe934dU,
  0xbea272aabe654edeU, 0x3d8372f23e4959c6U, 0x3d45233abf4b353dU, 0x3e00986a3dd2c164U,
  0x3c4d9a63be52482fU, 0x3cb4fc863e2b6f39U, 0xbd4400a23cdd0776U, 0x3e8942603eb60044U,
  0x3ddd66c5bec14b1aU, 0xbd9438d53ddf9bf6U, 0x3e0907c6bdc0a805U, 0x3cc24022be4762caU,
  0x3c97a48b3e83d1e3U, 0xbd523283bdd8a389U, 0xbe9b0d893dc761f8U, 0x3da088fe3e9fe5cbU,
  0xbe0baf85bd02c559U, 0xbe5b999dbd7fc25dU, 0xbe2191b5be6d4317U, 0xbdb373413db26bceU,
  0xbe07540b3e2059f5U, 0x3edfe510bdadf368U, 0xbe43791c3c0e5876U, 0xbed045aa3efca58aU,
  0x3e2e6eb63e2da78fU, 0xbc89c9b73e523370U, 0xbd2378263e5f4a43U, 0x3e7afac73db549d6U,
  0xbd4375eabb894e14U, 0xbebe27473db61507U, 0x3e41de01bd508882U, 0xbe1afc7ebde9b04fU,
  0x3d039a97be45c5aaU, 0x3d0de8f7bf112198U, 0x3e695157bdc0307eU, 0xbe85fb0abeac5f68U,
  0x3e9a5ce83e116d7aU, 0x3e3626cc3e5812f5U, 0x3e82dbbbbe09b3e0U, 0x3e3741bc3e4901acU,
  0xbe58f49cbcd890e0U, 0x3e5025b2bd964a04U, 0xbcf34a49be4bec2aU, 0x3ee475493c2d6a56U,
  0xbef6ebee3f14bf0bU, 0x3e064a86be93e0adU, 0x3e0d69b03cb87427U, 0x3ec01e5cbd5824a8U,
  0x3dbf90ccbf31dd1fU, 0x3e566980bde17150U, 0xbe41777f3c33d6e3U, 0x3e16bc4cbd42dec3U,
  0xbdb58492be2b9bb2U, 0x3ca8463dbf0bebd0U, 0x3dcf7374beba2567U, 0x3e117cd03e262a46U,
  0xbd831234be055e35U, 0x3e383c5bbeb34074U, 0x3d04d9d83d94db5aU, 0x3d8053903da7c0d9U,
  0x3e08d502bcd58483U, 0xbebe5603beb610e5U, 0xbe9682dcbe737a79U, 0xbd1ea5d13ea079e2U,
  0x3da1e0cb3d499e5cU, 0xbe2ca22bbe1232daU, 0xbd580c74be39b84bU, 0x3c8bdd91be3eafa2U,
  0xbe30fdc33d267160U, 0xbeda0281bccf4166U, 0x3e6492ecbdcc1a5aU, 0x3c3d37993e8eef1bU,
  0x3e1ed32abba49447U, 0xbe484997be97892bU, 0x3da029e43d466518U, 0xbd4af47ebdceda9cU,
  0x3cf3881e3e1c7832U, 0x3e303fcfbc9998a8U, 0xbe5fd3da3e0f298eU, 0xbddb51d73e4a724aU,
  0x3c8eb02c3dda0af5U, 0x3e40b661bba607d3U, 0x3e085427bdd94a6eU, 0x3d49ca5fbcb261d4U,
  0x3de54e89bccfee31U, 0xbe80db11be52676aU, 0x3e2adc0bbc75a852U, 0xbd4e09db3e51bea4U,
  0xbd3148b83de9f3bcU, 0xbd473c733d412567U, 0xbe00d3b73e681232U, 0xbe1713463dbdb90eU,
